300
body.stage1.0.0.weight 216 3dd6fc07 bc0bcce8 bd6bcfa4 be00a107 3d6d0c1b 3dc22da8 3e7be0a3 3e368f31 3e0c108d 3e314df9 be0f703e be23a419 be336334 3d54ff68 3de4f78d 3e4256da 3e5ed1b1 3e3c30b0 3e63276c bdaa08ef bdcfa050 be76538d be30eee3 bd4e110d 3e83519b 3e30357e 3e5bae80 be1a49ac be524a82 be9a867a be16a0a6 3e779e35 3e4ed879 bd8fe174 3e196381 3e336ca6 bc84de1c bd82c542 bdd17b3e bcd0c397 3e9b5f8b 3e95d501 3ae12254 3dcfd85c 3e0e3cd2 3e3557be 3e073c58 3e62d163 3d53adf9 3e24eb29 3e602b3b 3e3ddb5d 3d94faf6 3e19d39d bd89d3a0 bd3bcddf 3d321311 3d85360d 3e17082e 3d6a51cf 3e40223e 3e9ae3d7 3e8f7fa0 3d9ec211 be567fd6 be88820c 3d199ecc 3ec53f9d 3ea0fc7a 3e2e1bbe 3f15b204 3f132c3e be15af16 bc66ef8e bccc73d5 3e1480f6 3e8b54d0 3e4f2651 3eb65c3e 3edd0a1c 3eeabe62 3ea9aeb3 3f1db97f 3f0dd43b 3f015347 3f4e2323 3f38794a 3ec0b6d9 3f22e889 3f21946c be017f55 be16a36c be3e8660 be139903 be5c680f be868fbf be0f8bc3 bdac44dd bdde8690 be8f4b0c befbab26 bee31a24 be9d158a bf0fa212 bf11c3bd be5706a1 beb64bf2 bebf77d7 bca77731 bdad0e00 bd99e915 be0010f1 be0c9427 3c8689f1 be42fc6a be36db71 bc279f10 bd719955 bdc43736 3d8685bb bea4ce69 bed02792 bd46a508 be5b97df be6564e4 3d34ad3a 3d53e6c1 bd2bcaf3 3df64c84 be8420d0 beb133e8 bdb01e12 be906e11 bea35328 bcd84961 3d847a52 bde12e3a bdcfe339 3df23452 3e1de319 3ea3d304 3dcf1303 bdf9bbcb 3c77dd96 3e134fe5 bc7b6f1b bdc5ac53 3e24378c 3e917e5e 3ee1e160 3da2fc0e bcf1f84e 3e0ac411 bd96e68d 3d943f7f be103e6a bda67dd1 3e9a50d8 3e88caa3 be39fc24 3bb6ab8e bd733996 3e0088ad 3c603faa 3dbac541 3dab30d2 3c9ff6be 3d952163 3e540d0a 3d901f34 3dcfdc6c bf106fce bf2488d0 bf22ff0c bf1ebb75 bf23ed0b bf268067 bf00ebfe bf2020b9 bf2a4303 3eeaa88d 3f0f6f10 3efc90de 3ef8cb6e 3f32575a 3f26366e 3ecc5d77 3f0641a0 3efed3cb 3d132362 bcc5cd71 3ccf6024 3cdca789 bd93e53d 3c70c586 3d3cb2c5 bd9e5e1e 3d93396f 3ce21ec4 bcd538c2 3c8e3f2b 3d910993 bd1842db 3d5e01b2 3d88f002 bdb797dc 3d9c381b b9efa7ba bd13f93f 3cd9af45 3ba96ec3 bd13a0b0 3db0b16d 3c9a612e bd54c071 3e15b46d
body.stage1.0.1.weight 8 3ea51bab 3e13c35a 3e9c1517 3f9aab87 3e93e84a 3dfe6654 3f1aba3d 3d651c06
body.stage1.0.1.bias 8 3ef6f9bb bef457e0 3f1dce10 bf15ae6d 3f34b549 3ed33451 bf46ef98 bf29b049
body.stage1.0.1.running_mean 8 c0d18b9c c124d799 c1bc3179 41280e53 418d1434 c1318008 41d49903 c0071c40
body.stage1.0.1.running_var 8 4609e606 469fbd0d 47bfd665 4725ffe1 4757f1cf 4663efd5 46cd4f10 443050fb
body.stage1.0.1.num_batches_tracked 1 483476c0
body.stage1.1.0.weight 72 3db7511c 3e7677c5 3c7340fd 3ddbfdea 3f084951 3e5da1d2 3d85487d bec28963 be291653 3d46e385 3ebb9117 3d64c99c bd9490b3 bf6f85b6 be20ee6f bd8884bb 3c802d14 3c547dea bed1d151 4001a4cf 3d1bb7cf be1313e5 be7abec0 beb10217 3d076774 bdd0665d 3e140bc2 bcdc2b44 be8d8fed bd99235f 3cc6ddb9 bf68b9a9 bda0013a 3d653da4 be2a7426 3d1f85f9 3e48f95d bfe4ebe3 c013cc51 be3decdb 3f62b301 3f6f2bd2 be1d6325 3f87ecbd 3fb97cbc bcc01766 3d5f6b91 3d76de60 3dca0390 bf63bbc2 bc7aa8ef bd656a34 3c765707 3ce36de1 bdd3a728 beaa362f bdf2f215 3d851d60 bf32d141 be4f9714 3d632731 bdbcd853 3de40fb6 3e619738 3ef7104d be4ad723 be2783ee bd56dac1 be274b29 bc3977b3 3c2db32e bd4d99b8
body.stage1.1.1.weight 8 3e9a5382 3f2565b2 3ed04ce1 3fb34955 3ef1692e 3f267003 3fb39a00 3f07d279
body.stage1.1.1.bias 8 3f00a768 bef656fd 3f5d2abf be427ff6 3f04fc7a be9e6b49 3e151c49 bf00c497
body.stage1.1.1.running_mean 8 3eb2163c 3d0f5fa2 3f1ca0d7 be0659b4 3d89b859 be99e563 3d127ab4 bba11266
body.stage1.1.1.running_var 8 3d65e1de 38f60f02 3dd4a60f 3f1860ab 3de9ce54 3c0818c5 3e19af02 36da18b3
body.stage1.1.1.num_batches_tracked 1 483476c0
body.stage1.1.3.weight 128 bdcd19b1 3ce2bd8c bdcfd36e bc144d4e bf9807db 3cf53bdc bcd9c899 be0baac8 3edc6273 3d34dd3e 3ef8ffa9 3d410f5b bd17f0ec bd8608d3 3a46693f 3e7c8044 bee8df14 3d10d050 3ec133ef bd738b28 3e6b6a68 3cfc2770 bc1c7492 bef71386 3d8538ef 3e42ebf8 bf3e2f8f 3b9ac443 3d63fa67 3e3167d1 3c295ea4 be9e955c 3eb74a68 be785017 be6b8a4e 3df691bf be6f82b0 3cb24422 bd82541a be072758 3d9cef64 3ec0b43f bd9ffc37 befc9933 3d8f9d55 beb8743e 3f7ef4a6 be84a45b 3f1d99de bd733450 bef302b6 3dd5aa8d be587d43 3bd1d202 bd6fefad beb952fe 3d61d9c6 bdcf77b7 bd7c86ae 3f9564e0 3d1f2e07 bda40c50 3eb3d753 bb30bc73 be30c04e 3e797547 bf37b1df bdec3be7 3d350ab8 3e0e8dbf 3d431f09 beccb0de 3d14546d 3ec582a7 bf125b8d bb4f920a 3d04fc9f 3edfe863 3d540889 bc7f7700 3eda5ed2 be532f62 3f270cdd bde54adf bc93e15b be3d130d 3d11570f 3e19f847 bce88431 be2f7486 3c873c1b 3f449f51 3b03d1be 3d84a6ea bef67a30 bdb907fd bde6d244 bc315378 bdfee4c2 bf8ac40d 3d7465ef be1152b9 3f1c17a9 3e04637a befde742 3c485bdf 3eef40ba bc65c894 3e372559 3e2ecf5f 3c1c3f4b bc940f83 bd5d4ba4 be3b99b9 bc680f79 3cb7b048 3cee3853 3d0f2bd4 bfa56a97 be21a22c 3e575f9c bdef7d4a beba9c03 3c59873d bfb0e0df bd1274c7 3cfba52c bd1b98f7
body.stage1.1.4.weight 16 3ec27aa2 3eef9e79 3e205329 3e3b2fb4 3e063d58 3f12be6c 3e5ffde2 3ebc6bf3 3eabde75 3f0c5837 3e88225f 3eb9561a 3e451646 3defcae5 3ee19b26 3f1efe7d
body.stage1.1.4.bias 16 3ec5f13e bf3916d0 3ed7e925 3f081b3c 3f10f855 3e15a397 3ed9a6aa 3eec9466 3f27d7ed bf72405e 3ef8edd8 3e79117d 3f005545 3eb380b8 3e558ce0 3e27add6
body.stage1.1.4.running_mean 16 bf4acb0c 3f1ca1a9 3e6bed9b bf0b87f0 be144117 3e90d67b be524304 3eb39e17 bf280e60 becaa1f5 3f3c8419 bce9db30 bdffd828 3e89da82 bf030bb0 bf747959
body.stage1.1.4.running_var 16 3e6e6860 3dd9f46d 3c92f1d6 3deab92c 3cc6aa37 3e3d48ca 3cecc754 3e01717f 3e255c83 3e091087 3e4e3ceb 3e096fff 3e76b8a0 3c6100c5 3e1e3e51 3ea4b969
body.stage1.1.4.num_batches_tracked 1 483476c0
body.stage1.2.0.weight 144 bd16035a bdeac581 bc0229db be6deb05 bf2068aa 3e5d2bf5 be4fc9f6 bf015ed2 bd66c76a be616189 3e9e39a4 bd8b9cdc be342079 3e0c38f3 3e9df4b9 3dd115aa bdccbfbc 3e76b8f8 be3d6d65 bee06594 be994602 3eefe8ce 3f5b6e99 3edf34cb be7bc34e bec5a583 bdda4464 3b19a23c 3efb4f6e bee7d7f5 bec633b5 3fbf72eb bf86608d bee7c64d 3f8fbdac bf31f10a 3d286162 be19ba21 3ebc2a88 3d400a77 3e719ae9 3f090c15 bdcb3fbb bd01c2d3 bf669a8b bc37c7ad be53ea9e be80f48e bee4c17c 3e19a67c 3f22ae42 bf0d0632 3e8a9f68 3f675f7d bc8439a2 bf227ee7 bf1c83af be44b979 3eb04c8c 3f235e5c 3d3db52a 3e05b9d8 3e2bf9ca bce890e1 be332222 be8c452a bea290f9 3db5aaba 3f0e9aa7 be892a1f 3e8112a6 3f4f4230 bf40c6b5 3f1b41f4 3e9ea92e bf95947e 3f28d6f1 3ec6408a becc7370 3e1ae66d bb534d0f 3d6add97 3f05ae40 3ec6b2bf bb256891 3d2bd111 3dc13681 be169b48 bef8c488 be96ae2a beb05628 3f1b733d bcc39194 3e9a840e bd7848eb bf1fed4c 3f3e0338 bef71fb9 bf196d4b bec895a9 3e912acf 3f1be2bf be41ab42 3e4ea5ce 3eb2e28f bdb56328 bdbf5f50 be665ab0 be10fd7c 3f24230a 3f8732e5 bd9086c3 bd626964 3e48a1bc 3d9318f3 bf2797a7 bf5db3f2 3e90a7ca 3e8b3f7f bea9013f bede9c5a becc9c45 3f1faf5f 3e05df17 3e4e9bef beb477e9 3d53d3a0 be83e166 bf06d182 be39c55e 3dfed58d 3ed754e4 becc56f3 3ea2c3fb 3f701d0f bd9fbca7 bf334474 bd3cf4ee bcbc4e45 becb3814 be3e2251 3cfc87e1 3e25f84d bd60f3fe
body.stage1.2.1.weight 16 3ed544ff 3e73d11c 3edadccb 3eda7f06 3eea27b2 3e0e47cc 3f143235 3ea2d636 3f0373ae 3e9d9522 3ec3f555 3eafa1b1 3ec4b8bd 3ec81258 3eb8723e 3ece8251
body.stage1.2.1.bias 16 3f041299 3eb4ae7d 3f283038 3fa188da 3ef9ebc2 3f31ec0b 3db6b48d 3ef4c159 3f32b064 3d28131e 3f668ee5 3e60e5cd 3d818016 3b86da90 3e4bddf1 3e81cebf
body.stage1.2.1.running_mean 16 bf282205 bd05cf80 3d27d8ff 3d1d26f7 3ca47e2b 3e0e3d75 bd5a1ba7 3e9f334f be065f7e bc71443a be73cf6b 3e00b90c 3dadb7ad bb38a427 3dfe1602 beaaa458
body.stage1.2.1.running_var 16 3da67e68 3aec67c0 3cf56020 3c3ed8d6 3c3b204b 3d2a0426 3d004f79 3d5dee31 3d4f02f6 3a489b4c 3ce3ae70 3cca1eba 3c1677ae 3b9ac83b 3d3c1ab9 3dfeb2bc
body.stage1.2.1.num_batches_tracked 1 483476c0
body.stage1.2.3.weight 512 bee035da 3e1cfaa1 be7c1486 3d8b8695 be435c1d 3dffdd1c be570d8a 3d47620d bec02001 3dffe354 be854904 3d697a82 bc3daee8 be201fb9 3dd2b08b bee86c07 bc581b48 be0b9f1c 3e705696 bcdfc0d6 be8b1dc9 bec35295 3e667cdb be872d30 bd9f3730 bdb9d19a 3e937a0f 3d52e221 be49288f be1ec01b be2061ac bba56637 bf334845 bc8ec1ce bec0f92a 3d006c33 bc0192c1 bdb6eee0 3e68fa5b 3d25bcdc 3d2e13a0 3d977042 3d2fa46c bc3f5453 be070310 3d8b311a 3dc3f076 3b342933 3cc5e41b be2c3844 3d4d06e3 3c82e1b5 b9dfb7a3 3f2a7eba 3d727e1a 3f6433a5 bbd7aad3 bbf8b7d7 3cd19c9d bd7a58c5 3d149a35 3d3c20c6 bf30c9a1 bcd31f67 beb832cf be7cd83d be60f61f be35c57c be7b3854 be077824 bde44c81 bd92b15a 3e8c1cbd 3ea77da1 3e831374 3cfda9de be1284ad bd8fd1f0 bb6ce194 bebc8e88 bc98ae24 3dac1ffc bcc2f82a 3fa26f33 bcca29b8 bd336b21 bc8e62af bcaeebb1 3ebf04eb 3cdd6c22 3dd4f888 bb99a92e be10945d 3d0cfcb1 bc589025 3c0fda84 be11a918 3ea0b964 3ebfd72e bcef306d 3ed024e4 3d0f1cac 3eb012ba bd1c0671 bd329a53 3f0aa75b 3d70625c bc890a1c 3d023134 3e9aa54d bc717863 bd9bc28d be9fb904 3e068585 bdc420a5 be552c74 bda1b7fd 3d2df9dd 3cf42793 bd486f70 3eaa72a7 3deff460 3e4013fc 3c853d53 3c9fbb7d be35a82b 3dbc5207 bee44c1e bd30ceb8 bd4a1d1a bd553777 bd0819ee bcc6ee53 3f3c8d1c bb5b98e5 bf0e3a4f 3d377be5 3c9cbec3 bdc46814 bdd6d5ac be79c81b 3c5d3937 bf242392 3d0346f9 3ef63b13 3d458e9a 3d6b3f61 bde3b998 bdf4c6c2 3d441da4 3dbeb550 bdeb5033 3ddc2d1b be7a4e1b 3e82b79e 3d68b35f bd8d834f 3c4d5082 bd08be62 3f06e5bc 3e2b1a9d 3caf2dac 3c8183b1 3dd197f9 3ce36a8c 3ec4a59e 3aba7084 bdde4f87 be0575a1 be1882f6 be38050c be98a3d9 3ebbc89d bc8833f4 bdc1e1ca 3d8ac25c 3d06080b 3c94855c 3dc7c5ad bc04e534 be3fd048 bdbd12ce bf88e779 3b8b4963 bd4a72a8 bcd57a4d 3c20a2ea bd417938 3de119a3 3f14b283 3d086350 bdf198db 3d6701b8 3d95eb91 bca26da9 bf3c0a1d bd4a4d3e bdb36595 bd6b776d bd0aa183 3efa979d bc72f29b 3ed20096 bd76862d 3beee35c bda5ed06 ba1a0181 bd62ee71 bdfcee3b be5920e9 3cce6727 be3ddb60 bf4d5f65 be0405bc 3dc1ec0e bdb66312 3db50740 bd3db814 3d0de5d2 3e22c5e3 39877d04 3e10df37 bdee62a6 3d7f26fe bdd6d1ff be223eb2 bc1ae81f bcfeddbd bd07385f ba40bbd5 3c45013e bdf124c9 3cc99f76 be9e3411 3d8f463e 3f241490 bf47701b 3ca7e467 be9c838e 3ca8ca4a bea608f0 bcbc1a03 3d81c36f bbe52960 bef52a8b bdf03e9d 3e3d837e bcbfd290 3bfb1b2a bd0d9598 3e2f51dc 3e0052a1 3c078efb 3c55ae04 bcc166b6 3ee2ca23 3d56ebf0 be82df1b 3d16e1bd 3c8d2735 3cad1996 3e9c0f34 3d1cb050 3c5c29e3 bba2f4e9 be71af9d bd2b883f befadebc 3f2f5de8 3d8cad7b bdb6d3db 3c7c73c7 3df584b7 3f14d394 3d5b44fd bdc86b4e 3d2abeec 3e58d907 3bb060b7 3dde17e9 3cf8472e bd714e8a bf8c909a 3df860b4 3d65a208 3cd138e8 3e25d395 bda29837 3b25cb40 bdb2d433 3cf923c4 3c0224b3 3a8c0478 3eee9097 3cd7ef74 bef03de6 3d084074 3dec846b 3e09343e 3eba0ff0 bde8e4be 3ca9cc40 3f10b90f 3c8a5ecc 3d4683d6 bdf03c47 bd361eb1 bf08cfca bd38dcb7 bcd541f0 3c078da4 3bb968dd bedc1fd4 3d691399 bebe8178 3d960abd 3d9bd77c 3cc6c77b 3d0815a7 bdc808dc beb51a86 be30c43e bd55c212 be880621 3d61e460 bd6884cc bda11310 bc573671 3f1d3d9a 3df7dee7 3e259fa9 bc5683bb 3e0b5004 3db260c8 bcf52092 bec302f4 3d83210b 3d86ad40 3e0352a4 3fa435ed 3db345c6 3d402725 3da6aeca 3bf9e583 3ecac01b 3ccb5736 3c8f55e1 3c4ffc5c 3db68254 bd01239b 3d0903ad bb8e8058 3f399b6a bdfebb8d be17c1c3 3dd9d37c 3d7de733 bdfd8e4d bdb896c9 bbffe40e bdda2d8e bec8acc7 3e503ddf bd91a705 3d8ebbb7 bccfdfaa 3c891f87 3ee0e340 bd8228c7 3dcca939 bdaafd36 3d8b5a2c bd9c120c 3db8228e bdad49dd bb1e5f8c bf88a71b be1a381f beb64e0b 3d849949 bd9a1602 bd4ffdff 3d6e5704 bd8373bc 3cbd8fa2 bdd759b1 bdcdcb61 bd89dd46 bdc38e67 bee35a1a bd7c2b86 3e8a9e3c 3cd0fd78 bd45b3b5 bce8c38b 3efb4eaf bac7b70b bd8fc96d 3efec69a bc985adf 3ebabd2a 3ecc72d6 3e1732b7 3d96f2d1 3e68f1dd bd632bcd 3e1ce097 be14c817 beee2b2b 3c0218fa bda51480 3db77c76 3e16530b 3d51900b bc4968e3 3e92357c bc842cf0 bd8ef9b6 bd6ad751 bcc4dbf9 be0a074a be768162 bd0b759f 3f43f833 3d08aba4 bc1f4171 bd8ccf20 3e070e7e 3cf7b77e bc4aecdf bf099630 3d8a1e11 3bf0473a 3dbfc8eb bf30a584 bcb3384f 3f007174 3e2e1f27 b9a27108 3c72fc9f 3dd29b28 3e7d40ad bb947131 bd2e187b bdfc50a2 bd7435b5 bc8d5695 bef203ca 3e8a2bcf 3ea25381 3d2bb118 be4e8a06 3c424e32 be0dfb73 3d2cdd90 bba1e14c 3da0b9b2 be37f3a0 3f268f77 bd93400f bc4ced4f bd7946dd 3cb8f47f 3dfa9168 394545b8 3d868038 3f8ef6dc 3d0e986b be8bbcf4 3d9eb2b3 3d6fcead 3cc67a1b bbdcd17e bdda1856 3de2c934 39fc4fd5 3ded09b0 3d971a52 3c196ce1 3cbfbb72 3c8fd9cb bb82d242 bf43892f 3d5a8f96 3eefeb0f bd95cc50 3f178b05 bd11796f bd4b5859 3d9a7b8d 3d8e678a 3cda46e5 3d80cf1e 3eac0024 3bc36619 3e278352 3e818646 bd233c64 3d7113a4 be9d6c98 3deceb88 bd79b7ef bca1a2f8 bddb4ecf 3dbb956c ba80e4fd beab23f8 3dbbe010 bc47b2a9 be6c318d 3cc5aad5 beb1e610
body.stage1.2.4.weight 32 3eab8910 3ea0f8b9 3e63ad4a 3eb44337 3e83cda4 3dfbd9de 3e8a8b96 3e88e6e7 3eb3e811 3df3fff5 3de44341 3f0f56fb 3ebfe083 3e70afff 3e9856be 3e502396 3e7bda91 3e711067 3e9c6436 3e0f22b5 3ee98b68 3d74378a 3e8267f8 3ed180cf 3d9fdd4f 3ea39efb 3e5e6176 3e4a4aa0 3e5684f4 3ef8a3dd 3e1796c5 3e14b52b
body.stage1.2.4.bias 32 3e881cce bddefebb 3eb5b125 3e9dc67e 3ec2f9db 3e9c4908 3e556bd8 3e84bdf8 3ec90999 3ee4b23b 3eb27401 3e2dbdc7 3e75c658 3e9d46a2 3e4c3414 3eb92e59 3e9f43c2 3ee81c1c 3e267925 3eb28a2a bc05678c 3eb14fef 3e359484 3e9e6578 bf166bf8 3e69c168 3f170e43 3eadd856 3ea1296a 3d12fa70 3eb05661 3ea16cf7
body.stage1.2.4.running_mean 32 bf6a1bf4 be931b96 bf058cf3 3f446d87 bf1c276d 3ff417d8 3f1cc602 be479196 bdf548b7 3f0ffab5 3e32b387 be988efe bea48850 bf42c3ee be3e2964 be07aadf 3df6a6f7 bf06bc08 3eec35e6 bfb2bec4 be29fe31 400c61b5 3f039ca3 bf89c752 be6299b5 3e9b1c8f bd9e24c1 be24ccbd 3f1822f2 3f5f5dbc bc67c2f5 bf1b5801
body.stage1.2.4.running_var 32 3df61d84 3d8786a5 3e08853f 3dc68985 3decb4cf 3e78b628 3d47a314 3da93294 3e36d1f1 3dd8b429 3d872b07 3e4020d1 3e30082a 3ddf408e 3d933765 3db9886c 3da8e961 3e98bd1b 3d847926 3da7a19c 3e1187eb 3e7eaed0 3e00126a 3e8945fa 3e29471a 3dc424fc 3d935f6c 3e33c490 3d87158e 3e4adcf6 3e6b5293 3d8159b6
body.stage1.2.4.num_batches_tracked 1 483476c0
body.stage1.3.0.weight 288 bdf02a75 be5bd2bc bdc47a8f be67642a be77885e 3f12b7ac 3cbd22c6 3f29fc75 3d465871 bdf2cfa5 be10dd5f 3e00f976 bdd49a7e bed404cb 3d7b19fc bd97e2b8 be029273 3d8363a2 3cff1d6b bee60da0 bd2a4549 3e94e0cf 3f321774 3e496369 bdbda906 beae00eb be17947f 3f08e9d4 3eeef203 bf07e4c1 3eb344b0 3f3e01f8 be5cf375 bf0762c3 beb19442 3ab25721 3eb7137d bed72c32 bda75a89 bde0bf23 3f408bdf bf445077 3e17380b 3e7bb990 bdcc1cf7 bd7b42cf 3c97ee41 bd012f49 3cef7c3d 3f6c1da2 be83a975 bc0262ab 3d7f6f03 3beb7ead 3de77882 3c38b0f3 3dbccd56 bcd99f44 bf2c2e0e bd3b1fa7 3ded56b9 bed579d6 3d348537 3d7e7709 3ddc014d 3d7e69f7 be8c3633 3f048638 3e0262ca 3c8b0626 bf3d61a8 be188eef be88a475 bf0440a4 3e9823e7 beff3c6a bf37fcb7 3ec64299 3e6fe32a 3ed73b25 3e30991c bde51786 be8f848d 3cf1dcfd beef6563 bf054b31 3f44d6f7 3c8a7dc9 3ea17825 3ca6dc60 3e2b6126 be7b5624 bca18230 3efcb735 bf367bde 3eb16610 3e40fe61 be85a254 3d63a7f3 3d3fc408 bd287d41 3d4e858d bcc63a50 3f4c1eec bf3a969d be086d97 bd6f1dad 3e115cbf bd560576 3cf76e93 3ce2079b bf60085b 3dd53bba 3e45678d bdc8d5b1 3d3bda5e 3cb49a8e 3f12e1fb bf019843 3ac1bcb0 bf058ddf 3ef77fe9 3e1f2887 bda3fa51 3cc35469 3be9df64 be52f244 bf016cd2 bd9ac935 3e1edbc8 3f207ded be4893aa 3e410efd 3f364045 bea0f859 3e5d7af3 3f1c0950 3e01caba be8ecac3 befec47e be68ac56 bdc13966 3e060b7b bd43627d 3b912393 bf171101 be582f63 3e76d517 3f016947 bf0bc625 3d990851 3f089d07 3ca97732 3c9f0ed0 be0d1390 bc08327c 3f1479c3 3f1ccdc9 3ca4cd09 3dda2c63 3d8102e9 be100b7a 3e511cba 3efb8b3e bcc5e719 3edba3db 3e626e6f be9878f7 befbc32e bf1063d1 bd4e8e31 399e573f 3dab2e96 3eaffe89 3d9a0050 bdf3dd2e bf66c22d 3c6d4f49 3e108ef5 3dd095ba 3d81d01d be63ddb0 bb33e8c8 3df3f8f2 bf287f4a bdaed6a9 bbae2704 bde6ce11 be3f9c79 bc7abe69 3e0c488c 3d050471 bdc95efc bf6fe6c5 be467d6a 3a80c03c be05a136 3deedc5b 3d93fe89 3e6fcebc 3dd8c89e 3d0ede70 3f0e4da5 3c069c37 bdb23af1 3d3476aa 3b192599 bcedd398 3d0de4a1 be2d65db 3d94bf97 3f5f3bc5 bf543d8c bd62cca9 3d36c3dc be002546 be29799b bd26b8c1 3dc99381 bea48c40 bea53185 bc9e07ef bce7c4d1 3dd79065 bdb0f5e8 be4f0e00 befe2301 bee7f5c1 3d6823c3 3f41cf0c be15238f 3e06b78c 3e28e6fb bbbbc80f bea431d9 be7102ce 3e9eeeb7 be0552b5 bed1c5b3 bc9a2fba 3e6203f1 bcab87a4 3db5d2cc 3ca26ffd bf4caff1 3d5b5b21 be05d1e0 3ccb0bf4 bcafd3be 3d8abc9b bcd4fb6c 3d6108a6 bd4a970d 3d8742d3 3d1b1578 bec50526 3f7c5498 bf1fd12f bce691eb 3d8d0b76 3c1a298a 3ddc802e be8adb95 3cbbb039 3d2f4aea bf41636b bd926f3a 3d0bb5e5 bb58dfad 3cf71ba5 3d25d412 3ea85a34 3dcf477c be2eb3f2 3f3f1259 bdccbdfc 3d4ad224 bd3769db 3ca446c3 bd4057b1 bec7c413 3e061a6c 3d720cd0 3f3a7698 bedec200 3ca630b4 bde670bf bc9d3488
body.stage1.3.1.weight 32 3ebcb3de 3e20fed8 3f01577d 3e551b8a 3ee21a16 3f16ebd5 3eeab130 3ed9f0f0 3e81efce 3ef15cee 3ecc08c5 3f0e86be 3f1da626 3ed4bed9 3ea45c1d 3f06e979 3e8217aa 3e99fa99 3e870ef6 3efcb0ed 3ec9977b 3f17a05d 3ec3ec99 3f322340 3efc60b3 3eef060f 3e5c3e44 3ebfbe17 3f14a9bd 3ec3952c 3eae0744 3ed1094e
body.stage1.3.1.bias 32 3eec5790 3f0c4729 3f3f3b56 3eef8b72 3e4a6fc6 3d8046d2 3ea8b280 3eddd155 3f75732c 3e30f55b bd0eb6d5 3d16b12c 3ea6beea 3f8a956e 3ea79d9b 3ea8f852 3c36df71 3f172ffa bc7782df 3c23e2fc 3f2600f9 bd8d5bc5 3d02a09c 3ed1cf83 3ccb3ec9 3e5ab97a 3e168bd1 3f22a824 3b8b3bcc 3f87ded3 3ec33b82 3b925747
body.stage1.3.1.running_mean 32 3e02fca8 bd160b67 3d5dd092 3e294621 3c3c7f02 3e56e1bd be2c3757 bd9ac68c be584e68 bdd620c5 3b06840d 3c688087 be2bd39e 3d330298 3dbaaf92 bcdcd22e 3c6cabf0 3f016904 bc6cb603 bdbec3ff be013d78 bec0e31c 3e5044e7 bd876c8d 3d3adc4c bd4a3ebc be9d0c40 be86f4a0 3ce76280 bde63bd1 3eac31a8 bc9b0b35
body.stage1.3.1.running_var 32 3d5c1541 3bee1215 3d496080 3d413414 3d5e88f6 3c823729 3d3a4ec0 3d0e908e 3d37b863 3c8af52a 3ba3176a 3db43c70 3daea2af 3cd263c9 3d0aa38f 3d505320 3cbbe822 3d7877be 3cb4a615 3bfbf67a 3dcf133b 3b40881d 3cd6b5cd 3dd3b949 383616a5 3d7a7cb4 3c76e207 3c863b5a 3d2090b0 3dc6b163 3c1f0b13 3c28dbe5
body.stage1.3.1.num_batches_tracked 1 483476c0
body.stage1.3.3.weight 1024 be20ca1f 3e68ae37 bd7248f2 3f812a1f 3dab688c 3d7373de bc949405 bcfbfb78 3e08d03b bd864b39 3cdc6a9e bd175206 bd593477 3cbda99c 3e530979 3cc00730 3be27e65 bea19c86 3d46c9c6 3d17b0eb bd5143a7 3e0ed107 bbae1b78 3e10b451 bdb318e2 bdc6cd28 be311094 bc7cc600 3cea3eb0 bdc5a58b 3d51f6f5 3de3910c 3e1cb424 bdb41a6f bbad85cd 3da06d1c 3e8a2fd1 3b355bd0 bd800822 bf049f59 3e5cd294 3d67bd11 3ea337a5 3cb2a4db be40244f bd44a86a 3eb5d72c 3e012125 beec2968 be22e49f be13e1ac 3c8321ab 3d4e4327 bd8c088b bd9aba2f be79e74d 3e534c2b bee23429 bd42a90f 3d6e8f1d bd53fe20 3e0dd06d bd4a5fde be1933be bd3be492 bd075196 3cc555f9 bde0a920 bd07a151 bda044e4 3df31e41 be0c91a1 3d5fce86 be198420 3d75b01a bd3d14e3 3d89af1f bdfdbe78 3c94549c bef6b275 bd8315d2 bb610ec1 bd8d22ce 3cd225f7 3e84ad65 bb1efb9a bdc5122b bd7ddd30 bdf2f1a9 bd9cf32e bd1c1467 bf53f6e3 bd87dc8b be918430 3f549784 3bfa2ae2 bd4de8b1 be875d3b 3e37ad21 bd5ddc73 bdf7f8f9 be2bb1b2 be87c528 bb834053 3dbecae0 3d8c19cb bca1c57f bb86df1a 3bec9278 3b2d8ee7 bc09bc93 3e51ae46 3d748c81 3e677817 3c8db4d5 bce941ab 3dfee13c be0d1acf 3e4d7524 bdc62788 3c3506ff 3d8e64be 3d2b1900 be381a7f bdcaee91 befca233 3e61b791 3d49bd2a 3d43b71d be85924b 3db37259 3c944550 3c5becbc 3cbe42a6 bea91d16 3c3187e4 be2f2134 3e071ae7 bb953a5a 3cd6a674 be1184d1 3d7f67b2 bdc6ebbd 3de4d13c 3e0691f5 be5d652b 3de7a987 bd093ea6 be47a0db 3ceef7af 3e571674 bdc55583 3dd2a243 3e10b20b 3d34816e bd38a2c8 bd805163 becbd040 3e74e003 3e2191e5 bdf7253f bbccec93 3d566219 3c83e7ef 3cd6cec7 be37ee6e bdc8f5e7 bcbaf882 3d3f137b bec0ae04 bd20a076 3d6568c6 bedc9bd5 bb277be5 bcb627ba 3e038881 bd0fb459 bd66af79 bd1af3e8 bd91f67e be3c9322 beeea6b0 bdc9f425 beafef5f bd555be6 be169ea6 bd3f0912 bdb24c0a 3c9856f4 bdab079e bcd6bbc9 bdb456da 3db96d47 3d86bb91 beeae486 bdb24dcb bed7b6a0 be9dc5aa bc1ba02e 3f00aa19 3d4f472b bf18db32 3cf29024 3da5893e 3e724d32 bf1429f7 3e085e3f bdaae0b8 3c505380 be14d100 bdfda42a bd53fce1 be3952c4 be1725a2 3cf0f062 3d4466f5 bdb41324 3e26efc2 3d831d32 be73c199 be5de5bc 3dfd9e62 bec625f3 3ee63b8d 3e524f60 bd44a402 3cc85947 3d69532f 3d626c1d 3cc488fa 3e22ced3 beafd2a1 bebe1a3d bd28a57f 3b955009 bd076748 3cf17bbf 3bbbe6ec bf0b68b3 bd062d13 3ef14b58 beb1bfca 3e1186a1 3d692477 bd74a4af 3c7a6e6b 3d804a76 3b745d22 be677f5a beb280c6 3cbffb04 3dd964c9 3d78dc71 bd8b9c98 3e177198 baab2b61 bdf616b1 3e35d284 3db34aee 3f4149cb be6a91b3 bd3f430e 3e0071bc 3cc42ee4 3e4ea1ac 3dbc3475 3dd5001e bcfabf2c bd68fd21 ba11cf17 3e8865fb 3cfc97e4 3de23171 3eb7fd85 bd98a613 3c7a6217 bdf3e20c bd7a51f7 3dd6354a 3bbfc94f bc4437d1 bb4c27cd bf15e19b 3d304434 3cda3b64 bc2bc7d0 bbedcfef bd7b51d2 3bb07cb8 3d0d7356 bcfeced7 3e0fda85 bea9f416 bd1a7259 3bf52fe8 3ea23791 be8f158f 3e60aa82 3e555163 3d6e5e12 3cda885d bc58eb19 bedc1a09 3dad4bdf 3ebf038d bc08ed4d 3e372403 bd030874 3e14087f 3c0b9bb5 bcb66a68 bd44c4b4 bdcc961e 3ea87e7e 3b855cfe bda18a3e bd547da7 3da1d2c5 bb631157 bc979a56 be471999 3edc31df bb7f4dbe bdc24048 be498e21 3d9c7c93 3ef23c18 3daacb53 3e77b8ee bcee7416 3e4345db bc3bdb3d 3d502cce bdedbc82 3df6d8f4 be1e4f40 bdbe2a8b 3f66be52 be3d53b0 3e11237b 3e917c24 3dbca62f beea404b 3cae3d1d bec37b35 be1b837a bdd763a1 bd58bd48 3de94241 3e84f80e bde8693e bde8b1e4 3e53cf36 bdb21728 be370650 bcc2ff19 be11f9cc 3d9f70fd be86853b bde38a12 bd59a69d 3d263628 bd59a70c 3d5e647f 3dc95f38 3d9b48c2 3d0ad576 3c8ef8ee 3ddbb1c0 3ecc616a 3cc58edc bd2d75f1 bde70fe9 3d182bef bf3ceb4f 3d2b3556 bbb11186 3f3f9297 3caeaa15 bde83cb4 3dd88892 bdb93a09 bdb2080c 3e6a0c80 3cc3a02f be793a66 3d5691a2 bd9abfce 3edca294 3f181f6b be1245da 3de31486 bd39a18a 39ff133b 3ec9bada 3d20455f bf11d0c9 bd394466 bd53e671 3e408656 3c5b1138 bdfcfec9 be048711 3c64c9e2 3f09e304 3ead4b76 be6c7851 3e6a18f6 bd91d4c6 bcd1067f bda8615d bdf06a43 3eb65e5c 3e0e3d0b bdea488c bda8117c bed23a2a bdb72932 bef9deb0 be00f41b 3c006bd5 3d5fabec bdc7ebae 3ecce99e 3cf69411 3e97d2f1 3c559fb0 bd1e0404 be1c15a0 bd8fa8cf 3e13c7e3 3e5442cb ba8cdcf7 bd90de96 bdd431b3 bd879fc9 3e3fd253 bdc66037 bca0df65 be50c910 bd1495a1 3e3c60a0 3c9475f3 bea3a472 3d1e56cd 3e557cbe bea579e0 bda190b0 bdfa98de 3df407ce 3dfbdaa9 bc40866c 3ee7ba91 be35a80e 3d80a7e8 bc922982 3dfb5ed8 3e956831 bdcf9f8f be3566ac be791013 3f1eb682 bd1c13b6 bdc2cb49 3dcd7c5a bbd86742 bdb034ce 3dd74504 be832a92 be26f2cd be05e747 bec21d98 3dfdb5aa beb1f802 3c440512 3ec811c7 be76e9e4 3e7a2b17 3da512c3 3f1eafbe 3dd6320d 3d9b67b0 3f7a000b 3cc136aa bd2e4d2e 3dca77d4 bced172e bcbe28cd 3d033719 be8de8e5 bd9e009a bd231552 3d2f0c5e bcf1f1fe bdba2b59 3f3d8a39 be387731 bd71243b 39e14dc3 bc7671e5 bd8b453d 3cbf6e86 bde8c967 3e6e2ebf 3cf09c9f be60f455 bc48c33d 3e5acc0c 3dd514c8 3e8d1ad3 bd2b94b1 3db5ba6e be683d30 bdc56bb3 bf1eba9a bd900b25 bdc5bb8f bd8d23c2 bddfc1f8 bce85c17 3daa5a38 bd7a64a4 3d2d35f7 bd4477a2 3cc088c7 bc972cbe bd4991c4 3f02148b be0141c3 3ba00e8d bd2de30f bde4771a 3e2fd345 bdfd23de bebb7f63 be02d215 be51bd90 3dae41dd bd01d741 3e8b6b2c bd77c005 bf6b12b2 be601649 bd49e3bb bdb20141 bcb4e845 3d2c94db 3d058e60 be6dd788 3d23c6d6 be33c1d4 3bd2f5b9 3c7cee57 3d8ac5f3 bdd735ba 3eae1b20 3d2d553d bf3caf4b ba77e051 bd8f59a7 bc235fd0 3d759d4e bd8218f0 3f3e9254 bdea1ca0 be599c7e bd6fc2bc be6fcbe9 bdedfbe9 3b898a1b bcae85bb 3ea79c47 bec593ff 3e07f840 3e65321a 3ce2feb0 bee01fee bd0d9d23 bee1e3af bd5f6d3f bde8f555 bf05cccd bd27a7fe be5a3f50 3cfdb118 3efbbe6d be4269bb 3e838848 3d24c3b4 3f3e7b13 bc9f7bef 3e126314 be655e9f be09485c 3d91e4f5 3d77a8eb 3ee955cd be08a324 3c1a8ccc 3d5285d7 be1eb054 be636c52 3d035433 be895f02 3ea48df2 3e23c407 bee4b1fb bb8ae00a bd95d046 bbc5c254 3d806dc3 bd3825c6 be7a9cf6 bd40a5a0 3e28add4 bdabdcc9 bd2e8a5d 3d083980 bd1ddd56 bcd155dd 3ebddbeb 3c10b339 3d602081 bc8a9ee4 bdd53e50 3e8e88ad bd488445 3db518e1 3e51f213 3df28d40 3e20c352 3e0ecb65 bd3d93d1 bd77a7c4 bdb4a2a8 3d881dcd 3d8bc346 3e6c375d be02ec1b bddc31a3 bcf30630 3c34f78e 3c9d45f0 bceda7c2 bda4a99f be16ead8 bcabfe82 3d10ebae 3d7762bd be047667 3d6ee0a8 3fa0cd49 bb55c5ca 3e1cfb7b 3d37546a bd2d127d bc7b4015 bcb71012 3c544985 be1e7957 bc4d3ab4 bd5dbc40 be04989a bd6a9c0c b9ea496f bd66d179 bdaf9d00 3d057e38 bd824eb4 3e718c3a bc31d4f3 bda75642 3ca5b909 bd688274 3e15be7f beea8517 bd304fcd 3cb488f9 bde0381b bdaba8ef 3f307794 bcdd0784 bd70b2e4 3cce3a9b bd162911 3c3875db 3f0a4dc7 3dae4811 bd589b3d be0143ec 3eccc802 3b863851 bdb3248c bce5cc14 3dfc2a73 3dbd9f86 bf32a13c 3cbf73c3 3ec8695f 3d0921e8 3daa2ca3 be4dc1f5 3db7e33d 3d9a733b 3f3ddc3b bd390fb3 bd83fcfd 3c7ae967 bea6eb7f bd741efe bd12e8a1 3ec232d8 3c9d8dc4 bee3aebd 3c27c569 bc181686 beb97ee7 bd634b71 bd8f6e1c be3cd3b3 be7fa0cb bd90e20e 3b9a0b42 be61e92c 3d07dedf beb30d4f b9d00127 bedb3c4b bc02d9f4 3d95e565 bdaa05db 3dbf1a75 3eae86d7 3d2a095b 3ddbb004 be8377b6 be91a36a 3e2ca110 bcf4dcb1 bc9a5118 be0d8765 bdefd92b 3db21f0b 3e2f994f 3e173c82 3dc1e624 bcc2769c bd9e4131 bda7f5e6 3c945c85 3de37320 3dfbe73a bc359452 3deb9fc3 3d357bdc be00d579 3df45324 be60bc52 3da5c9b2 be40bc89 bd040501 3e01c282 3dc813fd 3c7ac77f bd87cea2 3e3d7be4 be2bf440 3d211664 3e915a35 3d46332b bd863432 bd1525f1 3dabb151 3cee2fe3 bdf97fcf bd03ce10 3ee55c8e be302aa0 bd99e897 3d394dae 3b22965b 3cbe7aa6 3daf8025 bd1f74fe bde23185 bf4f7dd0 be9a3b39 bd127116 bd1b2360 bd896628 be46f1e6 3ba78f0a bef8e709 bd0e64ff bf4713f5 bb54476c 3c90e5f1 3da9f491 bc831b99 bb310b6f bd0f528e 3e0056a3 bda0b666 3e7901cb bd622f01 bddf4f35 3c584c84 bd460c51 bf405374 be065528 bd3e2023 bd67eac8 3db0916e 3dce2a90 3e1ecec4 bd29bc7b 3e1a138f 3d4eef26 3edcb4ea 3c589f39 3d2436d7 bd3f3897 bdff9f44 bcfcf587 3f28537d bca59047 3dfbf879 3de5095b bdb86adf 3d89cb5b 3d11ffcd bd4f131c be345e77 3d383416 bd2e3cd6 3c4bc3ee 3dbd5b05 bc88088b 3d4789dc 3dd4bf48 bd145a3c bdc0a510 bddecf61 bd4c80dc 3ec26011 3ba8bdc1 3d2093b7 3d653fed bd9c26c1 3d2c7b82 bcf9162d bef83e5e be554d5f 3e274639 3bb303f7 bf98c927 bda8fae8 bdd25081 3d99ef57 bd960847 bdc99de7 3d3ae83a bd95727c 3d40e13a bec90d78 bdba0f0e bd570601 be66c518 be44b022 bcb023f1 3d5eb390 3e818c1c 3efd19e0 bd568b92 3c11f462 bd025930 3c1785b5 bca601a9 3ee21f21 3de26c0d bee9df0c be688d96 bec13ec0 ba96ffbe 3d07a3b0 bca55ac2 bd78ec74 3d5f837d bdc90dca ba93163a bd26831d bdecbfb6 bac9ee5a bcf1e6e6 bddc37cc 3c47e410 bdc1a2a0 3c206695 3d7969ad bd88bc90 be966fb9 be8d657c bcac0a69 bdd3c3d7 3d10b175 bd916f01 3da86f80 bdea490e 3f2c57e4 3cff8f46 bda3d056 3c8d6ef1 bdb2a0ce 3c391407 bd76b593 3dcbc024 3e48dfdc bda2efd6 bdf013d1 3efe4741 3d11eac3 bde0ba0f bd8e1973 3d978b25 bb8e99c2 3e6f3334 bd83af22 be0af07c be9efe10 3df7665c be77e23e bd94ac5b be935af2 bec3eeac 3e1a1b1b 3dece504 3daeb12c 3d9ebda4 bde66346 bce12ec5 3d8365a5 3d2b5dc9 3e164620 bd0c66e6 bcbac9b6 3dd763d6 3ddc9958 be043a87 3e072ddd be97955f 3e3005ab be8332e5 3d8316d1 3d1f45b2 bb4a7f9e 3de46206 be42104f 3e253779 bc6ed29f bd88f57b 3deee3f4 bec30235 3e37dc76 bdac997c 3e3df449 bc6d3e43 bec71efc 3c8d1f58 3e297a38 3e87399b 3c42fcca bc04e9d0 3cd21054 3d1c9ba8 3cff7a1d 3e29162f 3e0920ec 3f49e241 bd71995b bd232a47 be783df6 bce32c04 3f23b684 bda9ad7e be25127f bd150b18 beb085ac bd57b54f be0bdd88 beaeaaca 3d9471f6 3df2d300 bd84eb7f be5e1aa8 3e0f5e58 bd8d0cab be25835d bf84db9a 3ca8a762 bd0fb98c 3dcfd1fc 3db48f66 bed83951 3bf6e483 3ebc673f 3c9bbd69 3e17ab5d 3e832d3e 3c3648c2 3dde3e3e 3d014d7d beb1bdd5 3e0bddaa bf16f8ba 3dbf484c be968650 be77952c bc5c9d2c bce35b81 3dad9af2 bf41e65c bd232b8e 3dc4ceba bda2fe8d
body.stage1.3.4.weight 32 3ebb7fbf 3f0a2399 3ef98ef0 3e1ab2a7 3e6988c3 3eabdd0f 3f1b81dd 3ee1008a 3e89e8ba 3ec45b7c 3e69bb90 3eaeb15a 3ee0850c 3ed8c200 3f10fedc 3f017432 3f03bb5f 3ee4c951 3f1f4511 3e0b7828 3f26bc72 3ed84fd6 3f1cc351 3d678adc 3ea87450 3f0a1fb7 3f08804a 3ed92357 3ec6a0bc 3dcdb036 3e8807b5 3ec4fbf0
body.stage1.3.4.bias 32 3de2f1fc 3d81738c bd1ca229 3e27adc5 3e9e1b50 3ddbce31 bdd6e2c1 3db3f1b9 3eb19af3 3d06e506 3f126931 3ea758fe 3e48ce4e bdb436a0 bda94d45 3d39054f bd3d91d0 3b10c87d bdd4a2c7 3e96f12f 3d435e50 3c521898 be168cb0 3e9e215d 3edf2b1a bd1740e3 be017810 bdeea4bb 3d0a8927 3ed55e6e 3ef2d1ad 3e35e770
body.stage1.3.4.running_mean 32 3ecc4e4f bd39503f bf597773 bec84e5b bf5415f8 bf653c21 bf953151 bf45ffa6 3f4f48fe 3c975e50 3f94c3a9 bd0eff6a 3e958d9d bf0859f4 3f7f9f93 3fb6aec7 bfbe71ce bf14e918 3e85a357 3f3066f6 3ef795a9 3edb4789 be40c9db 3edab331 be5ea2df be5be6ed bf357307 3caf8248 3f2f2587 3dd7093d 3d8f3a9c bd92f5d2
body.stage1.3.4.running_var 32 3da8cbfc 3e7a761f 3e4a0afc 3d5b1fba 3db5ae45 3e2590f0 3ecb7a22 3e12e55b 3dccc788 3e0308ee 3e74c23a 3e438801 3e37630f 3e4530fa 3eb37f39 3eb24c14 3e79417f 3e4e9f6f 3edfaafe 3d9b9972 3e439cf8 3e485558 3ec4bb98 3d9f4315 3e35cd76 3dc0e768 3ee98420 3dfe440a 3e43a9d3 3e0f1865 3e042d50 3ee0e6fc
body.stage1.3.4.num_batches_tracked 1 483476c0
body.stage1.4.0.weight 288 3dae0663 3e1c69c4 3dc8280f 3e155d91 3e865c59 3e852be3 3dbc4530 3e450649 3e1852ef be090585 be188179 be264199 be278175 be896cad be4913fa bdc262e9 be744d8f be166345 3d6c4430 3e02d7d7 3dbed90c 3e7b0555 3ee58698 3ea67bbe 3e556b7b 3eb0e3cb 3e757c3a 3d89370e bdb24d8d be92b661 3e893f52 3d98d01f beb33916 3e96a1dc 3e88e93e bdcf72db be33f35a bdc98e2b 3e22ff29 bebcdcbe bdb1e12e 3ea94c79 be62b557 3d2e932b 3eadaf7a bdb71870 be1fc63a bdfb41b6 be030068 bead8ebb be94e344 bd89cdfa be51300c be67eabe 3e0b1413 3e6dd9a2 3e2015ed 3e5156fe 3edc2b3b 3e9e4e12 3deb0d6b 3ea333ba 3e6dbfc3 bd44e677 be7475e5 be54b5a7 be4643c8 be8ad141 be45024e be31629e be357d22 bd91a6e9 bd95a325 be1ee29f be021a98 be06b614 be78d635 be608463 bde77cb5 be51aea2 be2e2553 bdf6d597 be564702 be2b61f2 be090639 be1af776 bdf561e2 be2926c4 be64901d bd583017 bde855f5 be567826 be031587 be2fe505 bec1c997 be86e38f be4ba1b0 be9d6f0a be78cfca 3e06edc5 3e5ce388 3e663197 3e41f4e6 3ec88524 3eb694d6 3ddd18d7 3e625443 3e79d561 3d65220d 3e255e12 3db29f2d 3e43186e 3edcb138 3e5ce4f5 3e3674df 3eb642a9 3e3b4d31 3dd5e092 3e157eb9 3e1a7a9d 3e2c74a7 3eac3be2 3e8aa5ba 3db43333 3e233af8 3e0f56ed 3e113073 3e66da26 3ddb6602 3e909e09 3eee4974 3e92d240 3e435f34 3eaa1038 3e5daa87 3dc2fe64 3e3f72d0 3e30742b 3e880132 3f068630 3ec6df5e 3e042210 3e7f43df 3e1f8bcc 3df97793 3e556bd7 3e241499 3e8e66e5 3ef0a23b 3ea8d398 3e119887 3e6f0183 3e211893 bded7b63 be5b7def bdd25971 be62df31 bec21e82 be4600e8 be241f8c be896d43 be17935c 3e130f21 3e878825 3e3a48af 3e905180 3ef57111 3ea69e96 3e3ea4c0 3e9c79c2 3e3f1b41 bdb935f0 be586a5d 3e180bc6 bdc40882 beae76cf 3eb4d64d bd92c6f8 be38c652 3e171e2d bd6dfbbc bdd96834 bd8cd2c3 be53d7be beb7717c be3b570e be3394ec be87d88c bdf2b9d7 3e2f43cf 3e6778fa 3dd4e6d8 3e644979 3e9ea619 3e6fdbe6 3e178f50 3e412113 3e27d0a3 3e22b528 3e85c05e 3e1f5eda 3e936c6f 3edd5105 3e5bcefb 3e46c43b 3e8165b5 3db92963 bc5928a3 3dccb823 3d79166c be387e9a beba43a1 be885d65 3e2f5917 3e786982 3e145b42 bd9df0b4 be301ffc be17d61c be5563d4 beb120c6 be7ef1f5 be61ab68 be7d90a4 bddc3422 bdeb7d33 bddf22b8 bd01a85a bd5800a2 befe8d99 be036413 3c87a17b bdefe114 bd8d4e0d bdf80583 be6458dd be096701 be570f80 bed6e2bb be7b24f8 be15e86b bea49fa1 be5a11c0 bd81ebd5 bdd91ea6 bde7623d be04f423 be68a749 be5ddaf7 bdc8260a be7f29d8 be762261 3de063f3 3e7156b8 3e225fe8 3dd1008f 3eb9fa4f 3e7dba71 3da35cd9 3e5d4f8b 3e3e3f83 3da620c8 3e7560ad 3e3e2b5e 3cbc4933 3e433c82 3e01323a be823a3b bef9abbd beb5b175 3ceb4278 3e01cd5a 3de9c850 3df148b7 3ed62ff0 3ea99ecc 3dd660aa 3e8ee486 3e5d8c76 3de20078 3e651ea2 3e2e0563 3e46ed1e 3eb51fe1 3e82ab18 3e1e6977 3e7b0afe 3e31c584
body.stage1.4.1.weight 32 3e14954e 3ea08f6f 3e9a931f 3e8cb7e7 3ec0da6f 3e901dc2 3ebc4acf 3eb067c9 3eb7158b 3e8b6715 3f00afad 3eac4632 3ebff583 3ed62528 3ed21e39 3ed3d389 3eb00436 3e6e8269 3ec49713 3ea08306 3f992f95 3ece54a4 3ec591dc 3edd96b3 3ecd7b36 3f417904 3e7bff7d 3e94e3e2 3ea68321 3edc55bf 3ed332a1 3ecc26eb
body.stage1.4.1.bias 32 3e5a4e5d 3e945ea9 3ec7c90b 3f0fef8e 3ca01ab0 3f57fa6e 3f0e75ba 3f2528a7 3ea15c91 3ead205a 3f78edb7 3f14d6c0 3edd5352 3ea35140 3f0432c6 3ef381d6 3edd467b 3f657ef2 3f001bac 3eee65e0 bf2bd27d 3e939d69 3f1aef28 bcf25d69 3f54077b be8976ba 3f216dc6 3f0fe995 3ee63bb1 3ca10a58 3f3b358a 3f628e34
body.stage1.4.1.running_mean 32 3e84c9ed bea9c96e 3e7de66c 3cd94d9f bca94c7c be9707fe 3e7f4523 be9dacba bf01df30 be3fa563 bf92e580 3f3ab890 3edeef45 3e041dbd 3e8b2bc5 3ebe4895 3e7d35b3 be5ca1b4 3e8dd15b bdce7ba3 be9715e8 3e84ed28 3e53bf1f bd07dce8 bf4d4309 be388233 be1d0945 bdef3447 3e715240 bdd8ce95 3f52181f 3ef04fa9
body.stage1.4.1.running_var 32 3dd1a51e 3d88ef11 3e161da1 3c0287eb 3c86ad51 3cab2814 3dc75d9a 3dc3e1bd 3db227cb 3d205ae0 3e1ae157 3e15e095 3e806e79 3d0b7d5e 3e06c615 3e392194 3e0dd448 3d914df5 3e020591 3c2b24b3 3e163407 3e3ae52a 3dc7a97c 3aa3d53f 3e37c728 3dbf5fbd 3ccec6b9 3d2e6172 3d416b30 3bcf7430 3e1bea8d 3d8585d3
body.stage1.4.1.num_batches_tracked 1 483476c0
body.stage1.4.3.weight 2048 3e190202 be86d9e2 bd75e524 bd181d41 bc410fe7 bd23889b be272042 3d4fbaf2 3e1081ab be8f9948 be5732ce 3ce776f4 bde3b0df be1a75c8 bd1e0fea bdb8b7b8 bce37e34 3d507186 bdf25ac9 bc4a109d 3d69f4f4 3f5ee31e bc9b1b16 bd49a0cd bdb13185 bd878b19 3dcb98d8 bed511e2 bd94113b bd2727e0 be034ac5 3dce2442 befa86ed 3e1034bd 3d5f2db9 3e45313f bcf9c386 be06e9d9 3dde0433 3e569e84 bdae1630 3db7de68 3e51d616 be2bef02 bd86b58f 3e352c76 bdf4d2d7 3ea6fcd3 3dc10f01 3c950e6a 3dc2e6cc 3ddfa34e 3df4f877 be89b013 bd85a0d3 3e639adb bda85028 3e84acf2 bd01b35c 3dab224e bc9399f0 3e015461 3e3a2a94 bd7099ba 3d3fea64 bd3215ef bd5321fe bdcee1d2 3d95d860 bd2e8020 bc029097 bce06f36 3cc43ae8 3b79af5b be40bb07 3d98ad45 3eb759a2 bdb194eb bc3a00cf 3d5fc709 bd4cec7d 3d2577ac 3c727634 3d829d29 bcdcf3be 3e224538 bd377d0f 3e0c06a5 be190987 3d8e1dcb beda7996 3d19cf64 3e9f9c04 bdb5a871 bdf3618a bf03b8b6 3d6c276f 3d9a05ea bdcd410c 3e0377ed 3e7501e6 3d33aea0 bde2e986 bda9722d 3c0b79e2 3ea5e7bf be85a619 3d39d400 3f2a2518 3cad5956 bead672d 3dd36683 bce152a8 3e9b6ded be572f55 bce9d98f 3ea89a26 be07e55a be4026ab bd07b7c7 3d0bf7e7 bad0ad5f be36e4c3 be2ddbd6 3e93838c 3d4fe53e be769cc3 bd830074 3b10d089 3df04d7d bdaa456b 3d209945 bdcf3aa2 be1e58af bd9f486a 3dfd93ca bc60e406 3d29ec58 3da31964 bdba0397 3de2b1d1 3d8f92d3 3c3614cd 3d475d3d bd4777ae 3d0f6502 bdb4043a bf048bd3 3d202612 3b394415 bdb00351 3cd9d737 3cbba5a1 3b9ab5de bd6a5bd5 bdfa5061 3dfb0eb7 3d1f6e96 bbb16e58 bdd3b707 bd8236ae be137bf5 bdcd593f bcda6088 3dc8dea9 be8d58ad 3c51e26e be1c294e bdc22c12 bdc7e95d 3e2703e1 bcf7ac98 3da8cca0 3ca26165 bd21bafa be4351bf be0a6512 3dc98a7c bd5d8d09 3cd1b2ef bc1d5a41 3cf55f3b 3d49e539 be30b464 bdef7520 bc1896eb be1a8bd5 bd32f7f7 3e3e3467 bdadb3dd 3e0d2b48 3b9693bd 3d764dd9 3e18960b bdd2e00a bd73458b 3d48fc13 3da48769 bd8d18b7 3df25d27 bdcd7646 3d90eeb4 be368a97 bd8089b3 3f2c3981 bdaf30dc bd650e77 be47559d bd7875e0 bab20a97 be150dfb 3e513b0e 3ddc5abd 3d221c37 bc9b408e 3d61ab62 3d99d972 3d920b3e bf3fe6bc 3e175ac7 3ec879da 3e052b40 3b71181b bf2d0e28 3a315ef4 3e660223 3cc4ee01 be24e6ce bd7aa5ce 3cb7480c bb951acc be857aac bd14aa8c bea0115d 3de0355b 3d28982c 3cf30d3e bc108d6d 3c517cc3 3dc23fa1 3d0a5697 bd10f091 3d604e3c bbf487fb bca78798 bec5fbb2 3ca049cf 3d81096e 3eceb100 be05c7b6 bcacdabd 3e981d4e bceae897 3dc50ef1 bd041421 bd322c8a 3cade2b2 bec8f42b be10b961 bc814cb9 bd3381a1 bbe2d048 bd24099a be1dff7f bdd89bcb 3d9470bc 3e7a9d54 beb050aa 3e86a9e6 3bb10543 3e1a6ed2 bd5e3f9f be1957dd 3bb1f90f 3d83421f 3d70286a 3afcc280 3cfab647 be6d3e1f bdbed9ee 3d219e16 3dd11a7a bd2708ef 3e1be79b 3d16132c bd6cdd7f 3e738ba6 bdc7f28f 3e45aa48 bcdcc665 3d38c5bb 3d106d74 3de062ab 3dd7eff0 3d65d43f be307677 3dc3aa7f 3e1e6ac2 3f03f05b 3c6a9f07 3e0d315d 3d43161d bcf18152 3c323725 3cdb1262 3d154361 3d321017 3b984688 3d0a93b2 bbdd8c4d bd1e05c4 bca21196 bedf719f bca52ddd bce9b524 3e8615a5 3e22cfe9 3db94c71 be9515fb be0ddb72 3e335ad0 3dbe84eb 3e236081 bd64d7a2 be19b7e7 be1025cc bd2ad8a5 bd299199 3d064207 bcb6d1ff 3e278ee7 bd251b01 befcf838 3dda80b5 bc4447c9 3e0ccab0 3e1f3d9d 3d8ed90e bd9a9fb8 bce8e996 3d15c55e bca2413b bd988982 baed81a4 3de7473a 3e2100cf 3e91026d be05f456 be3e5bc0 3ce8932c 3e46a29a 3ec997e3 bdfb302b be4fa51b 3d0ca2b1 be12c4d4 bcaccc64 3d00098e 3dd25a2c 3d553f57 3d14b82a bd517560 3eb21603 bd48ec1e beaf34ee 3e0e8d70 3d6b7921 3e1adbcb bd02e98c 3e5f04bf 3c70c46b 3c8f2f3b 3dc5c1de 3e06b315 bc81a8e2 3dda3bd3 be1b2885 3dc9a562 3e4d855f bd1de034 be8cecd9 3d1df713 3e73ab46 3e2ceac3 bd9b1a42 bc66e429 bef7084e 3e158dee 3e1500b1 3d894e39 be22fc7b 3d30ac00 3d5d9fcd 3de187a2 beb069c4 bda62d01 3d127ea5 bd9f75c7 bcf04751 be619f4f bea7cdf1 bd0c6ef5 bdeeb1e7 3d1bd6b2 bd55a1fd 3e521b25 bb868b4f bdc2e3d9 bdcd7572 3b938b75 bd54fdd4 3c225a97 3d3351ab bd4dfec1 bea1b295 3d4eadab bc5f526b bc633614 3e83507f bd6177fa bd8634b1 bd730912 bca4d54b bccf52ec bd41c24a 3ba1874d 3db20382 3e0192c3 bcc614c0 3e5de7b4 3dd9c688 3d052df8 be8bf410 3ca803da 3d0d2126 3ac1e830 bd60384e 3b147679 3dc967a2 be7540e0 bdce55c6 bd633c3d 3a082dd2 3d87f28c bd9d33bb be1360ae 3d8fb762 bbcf7c13 3d1a0ac4 bd98a1ab 3c8ba3af bde1ee65 3ddbcc5c 3da4c2aa be1c2971 be1eaac9 bcbd2b65 bd885a3c 3d0c0797 3f11f1eb 3d652c91 3e495d55 3d201015 3d59a468 bcf0b197 bdf25ab4 3cbaca56 bcd29127 3cc220a6 bdb5e390 3dc6bdf5 bd9d5b15 3e19f65d 3cc6aee9 3cdef9df bd8f0354 3df3dab8 baa2cdfb 3e71e099 bcf7d60f 3e7bb996 be2f8886 3d0e321d 3d9a293e bd5f9a9f 3db2dfb5 3bfd8f23 3d1fdc52 3f0690ac bdadfcce be88d3ce 3dd6fd96 bdcd7473 3d2d1e61 3cebe955 3d464a1f 3d6e9644 3bb3002f 3c540e8c 3bdaed93 3d9ab583 3f899947 3c8fac46 3d47b6f7 3d5e20b1 3e8bc355 bd7e4d6f bdb26ac9 bd466808 bcb53323 bda72a02 bda10f26 3d5974e1 be1ce33b 3b3a5410 be14c443 bce7a91f be9084dd bd832c27 3d936e66 bc18896e 3e1b9d11 3eed727b be1e45b4 3d116e7a 3dc26f4f bdbbc1b9 bab84f6c 3c8cd46d bcd78567 3cf18a5f 3d7cbd27 3c2d3431 3e48feef 3cd07005 bb87b646 beaea47a 3e58ac2b 3b1fc9c1 bdcbe835 bd7bb29f bba1d1e7 bea5ed4e bdacf64d bd0889e0 3d821e76 3d4705e0 3d20d4fe be1e2a72 3d211927 3ec7c99a bd4170b6 bc8a5f20 bd0b79b8 bcf88dec bc8f7b43 3cade8a0 bd946b95 3ea184c6 bd62599a 3d3861ff 3e1701ef bed3202e 3bb641a6 bcd197cc 3b31f632 be6bdb81 3c618b1e bd8a7928 3db172b7 bd063442 3d38a548 3b22fcd3 3cf1a552 3d3f3910 bd182616 bdea5fe8 3e51a83a bc99dcab bd04a063 3d0c2aae 3bd0c107 bc69db22 be860064 3ef7a575 bd95d429 3ee39460 3e0ebe22 3e56f088 bbdcc1d4 3d5e6477 3d99fa99 bc4e224d 3bbf5a9b 3d3ff33e bccd0e84 bb3d6ba0 3dcc13ba bc867a36 3b48622e 3f74c1a6 bee5972b bc21ed7c 3e8c9ad4 3d16986d 3df1786c becac81b 3c78d13b be0606b8 bc9b253e 3e356b04 bdaf8d94 3e931487 3e19f4ca 3e83ec95 3e0f92e0 bc4caa12 bdeb99ef 3d8c0806 bdd0f1e8 3ebfd7c9 3eaf40f8 3ddded9d 3eab2036 3d933caa 3e90e375 3f012a7f 3d88273d bd0f8578 be151df4 3ea5a9a5 bcd9badb bb337002 bdf004ba 3e91fb34 be30da58 3f0a35db bd0e8547 3c3f120d be1826c2 bdcf023e 3dd27043 3d31d619 3c11f64f bc93ee70 bdb7e83e beba684e 3c7c6a81 3dd84e26 3e368de4 be9008ba bd8a74b9 3bc9b061 bd92c854 beb67211 bc22dc3d 3d0c9836 be3af382 3e809296 bc272bc5 3cdbe5c4 bdd535c4 3e15fba8 bc96fa65 bcab44bb bcc3cb70 3da76ad3 3c1b5886 bdfee935 3d5867b4 be66637b 3e89b52f 3da22d20 be5630cb bde35982 3da9ac1d 3cc9d389 3dc3a9db bd1ca15c bda16edd 3e421a80 3e9e0e97 3e622087 bebc3716 3db4bf0c 3d2b09f7 3a0e4a94 3d99fcab bd7e9348 bd02f8d9 3d3a48a4 3d23592e 3beab8ed 3d88a989 bd3728b3 bdee447a be89b0d4 bd995356 3dc14318 3e95eba1 3d45103b bdbba0f9 bda1c290 3db88b95 3caddf96 3cf862af 3e0ef650 3ba3363d 3d135412 3dae2208 3d089e77 bbaf871c 3cb12131 3dd942bc be14a127 3e308987 3e43b059 bd4c04c2 3d1e98d0 3bf049f6 3d56744d be24497b 3d7de615 b83f1da3 bd85a7f0 3e121baf 3dc2ff70 3d5bc881 3e8b77cc bd2cdcfa be3426e6 3a803462 3e0bc183 3ded2220 3efcb9e3 be8c11d9 bdd28e9e bd7d59c0 be075b2f bdc78b09 3af4a3f2 3e9343ef bdd05056 3e98fa3f 3d911258 bd0b0195 be84d2a3 3d3fcbc8 ba240115 3d6cea3d bcce4b27 3caee425 be26fb56 3d46148a 3dd95e22 3b31ee6e 3c07441b bbceb982 be2bb96d bca07385 bd89a27d 3d8455f8 3cf16cad be5803cd 3da28811 bd0e9e4a 3e1a571a 3e3b36bd be84d567 3e4854e1 3d043987 3d98ab8f 3e033509 be2b8662 bc7cde62 3e08304a 3d23bde2 3e188f86 bed4daf9 bbf47575 bd6af6a7 3e455193 3d0d9710 bde1dba7 bd04965d 3dab5435 3dc5d878 3d27baa6 be1a72f9 bde9e75b be3e1727 bd569b28 3ce80eff 3ed58ef8 3d0ac044 bec1a65f 3d12094c bb0c564b bde3cebf 3c8e4927 3dfd2c86 bdb199ac be914773 bd10602e 3d6eef69 be18bb55 bda16f25 bd9ffe95 bd19ea5d be33d886 bc44c9a0 bdb7f7f5 bc47c40d bd5405e8 bdd21ba8 be19d2a5 be5fafc8 bda9397a 3e6b89dc bc27536f 3bc4a485 3dafc6a1 3f407cf7 bdcdbc84 3dc005d8 be4ca5ab 3cfdc1e8 bcc61648 bd28bbde be69c981 3e8c919a be49523f bdd439d7 bf371562 bd4ef6f8 3ee568f8 bd998bf7 be7ecb72 bdf25057 bdcb2382 3cf13db1 bcfbe6be 3d1fbe99 3f1c8087 be81de92 3e08db67 3de167ff 3dd6a661 be1ec34a 3ddb4a56 3d9e0400 3dc218e0 3e4c92b6 bd0db0cf be6bd1b7 bd82104e be1d43e4 3d5feb97 bdc228f0 3efbced6 3d305777 bd524e78 bd460241 bddb890c 3c35ab3f 3e2149d4 3f5effdf bd09c26c bd877a7a 3ccf5c38 3dc40741 395fa231 be0011dc 3e0b7954 3e044c02 3d8a41c1 bdafeb70 bd2980b9 3c4eccf4 3eaecc5c 3f7488e6 bdd2a930 3da36994 3cb0bba3 be4bc082 be203a7c bdaddc7d 3db17544 3dbcc4ee bd4fc845 3ab051ed 3bac5caf 3ce2b45c bca14f4a bd474c03 3d5a79bf be356c3d 3dfd59d4 3cdee6e7 bda1e25f 3c2e25d6 bcacc545 3d3d3e54 befcb779 bdd5442c bedde9c1 bdf00ebe 3ddfb8f7 3ccc7f2a bd97b3c9 3d6285dd bda4a646 bd11eab7 bdc69d28 3c833bf9 3d1e01cb bd96bd20 3e443dec bbf6682c bcc99ab3 3eb0a98f bec03f3a bd2cbc53 3ec8f884 3d47745b be11b081 bb970b89 be164021 bd214f8f bca9b14b 3b422eac be2485b5 3c9b6fcb 3f2eb100 bdfb88d4 bd4a15d1 3da11e89 3d9c88f2 3d247b95 3da74ec9 be15b3bb bd3da31a bdd10286 3dcc1b0c 3dd63672 3e141ec9 be43b649 3e84fc6b bdbbb834 bc1c837c 3dfcb047 3c222037 bdd1e7e4 3da4d8e2 3e2bcd41 3df18bfc 3edbd63e bb6b7795 3dc7f6ff 3e73d7bf 3f12aa02 3cff7a81 3d8ff0c6 bcc4d009 bc95f038 3cb6715b bc0ea1a9 3c7c1f2a bf0de0a7 3c406ada 3d263919 3d8fb5c7 3bcf0d71 3cf048db 3b02359d 3d9e32d7 3d33bb69 bcc2d677 3d637f74 bcc210b2 badf0ce7 becad0d0 bbbcb898 3b299bf2 be9caa4e 3d9e6fb3 bcdecb06 3c11a1b9 3d0d54c0 3d07656e 3ced7f20 bde30489 3c8229b2 3d61773d bcba258c 3d8dc05e 3d23a0f7 3dbb8a32 bb002f02 3b943520 3ce87f03 3ce49273 3e9b415d bd92e7ff bda0f991 3ccde4af 3c98ade6 bdc06bc5 bcf17de3 3d3fc460 3da42798 bc26521a bc6c66a7 3da0dc72 3db42096 be58530e bd7e8510 bcdbe741 3e2dca20 3be27b65 3e2624fb 3f1377d6 3e4d8cfb 3e0609c8 3f4dd355 3ead38c1 bd820244 be0d6135 bd32d8fb 3e1cedda bdef259e be333413 bee037b9 3da6542a 3e05454d 3ea3bdc5 bc8d2bb5 bc6f6150 3dc5458b 3e0e98f7 3d52ee84 3d92c1c8 3d0e61a1 bd57058b 3d98f6f1 3d83ac87 bd9003a5 bd6658f6 3db6e707 beacc7c6 bc46c476 3da8c9cd bbacf867 bd4927c2 beb002ff 3cf81eb8 bd96afde bb213683 bd0601d4 3d046f52 3d38b605 3d960d03 3e9ba875 3df597a6 3d02bdb5 3d618fd8 3c1f9f46 3d5890ff be382df1 be5a99b9 3ed12cd3 be83fa4c be5b5350 bf2dbcba 3f1e8f56 3d907cac be99a043 bddc6a08 3e30d152 bce75f19 bb05e11d bcc57856 3e22cb65 3dd46d39 bdcbac81 bc1b2e41 3d7a38ae 3da4725e 3d234e47 be1df9d1 3eb69f26 3d2c21ea 3da82b20 be8b8e09 bbcfcb54 3e1f63a6 bccec259 be1b7d5d 3e3b59a1 bdf1fe94 be9c240a 3eb99d19 be758935 3f20e5f2 3ed53f5b 3f1aee2a be520193 3ce768c0 3e899c75 bcf32ef2 be11be47 3e91fde3 3d79c9d6 bd98e36c 3ea4dc71 3e28f298 bcd7312e 3eac0f53 3d388eee 3ee84368 bd37afb8 bca47240 be35815b bea5153f bee695f6 3e350656 bd7b2486 be08ffc1 3cbb1629 3d788157 bb9553f7 be63dc3f bccc0b4d 3ecfc8b7 bea424fa 3eaf331a bda8e1e8 bdabdc95 be2a466c bcd5d46f 3e24ab1e 3c94bbde be0569b4 3d65d6ee 3ce52eeb bd6aa175 bf0f28b3 be4b7e13 be627443 3df1ab4e 3ea10e11 befaf2bf bdb94161 3e94783e 3da69371 3e2b10a7 3de41302 bdb98e67 3e2c64d6 3eb57675 bcfb14af bd0b1c87 3da9a25f 3ed08acd beb9949a bc4c7009 bf14f8af bd30c4ef 3c49f3b7 3d8c1621 3df27b28 bda8be45 bdd77da2 3cfaf641 3e0f3d3b bd2a8e80 bdb28802 3cb1fc8d 3dc98a45 bdf9a81c bd7610c4 bcd14cca be6530c1 be8960b8 bd947584 3cac04c3 3dd3a551 3d94f33b 3e99655b bee0a3d3 be3c37db 3de2bb9e 3c8c88ad bd823834 bdf56626 3d89482b bdf51598 3db6b3a7 3d1474c9 3a17aefb 3d188a84 3d36b1a6 3d81b553 3f249aef be12052f bcbd6b20 3d818961 bc99b55b bc3d4db0 3bbfa37e be627e10 bd35f604 be5a2d84 be4bd512 bda1f8a5 3c710e92 bd2d951f bd832496 3c9ab311 3ccccbca 3c0e86f9 3df39af7 beb09037 bc9a6d00 bd59ec54 bcd28f85 3d2fbb22 be2e4d2e 3c57f6f6 3df6a384 be83efb0 3dca185a 3d84119d be10f99b 3ec32a91 bc964840 bc387f7d 3bf26d57 3eb708fe bd421bbd 3d98bc5a be502030 bd368f57 397043b8 3d522cff bd74801c 3d88165d be29245b 3ca9baa0 bdafe471 3d8d3cc6 3d9f9b35 3dbabf19 be265f41 3f7c4368 bd8e6d41 bcd0a103 bdc36c02 bdec4253 bd88c97e 3e657cb5 be5c082f 3f6e6ec0 bdba3d82 bbe00de5 3e81093a bef01096 3cce5b2e bd3b0b26 bd82d2c3 bebe7a65 bde44565 bd1b3d54 3c756a93 3d851f2b 3c61d051 3e6a0b01 bdf32f83 3d3b1b0c bca64cd1 bde91127 3d509bc4 be07e038 3d9b3ac8 bb9510a0 be54702f bd3edb02 3db9de4c bd333f55 3d16babd beb80778 3e41be97 bd64bada bb91ba88 bdc9bdaa be52b706 be23dc4a 3d8a472d bccc3782 3d59d208 bbc15d94 3e0e0cc4 be0bccdd be741167 3e1f2b5f 3e10c078 bdc967f6 be24ae35 3d2d5094 bd876407 bd4b65f8 be3ef6a5 3c28e41f 3df7b8f1 bdd05c67 3f0c7219 bca06762 3db0d6ed bc7ac925 be7b31b0 bd24738a bd0c881d 3f1c6ccf 3eea96b4 3e1a40ec 3dcacaf4 3dadf51b bd8c4a4c be3f2023 bdcf6ccc bd2b5618 bb88fdb4 3b3cd73d 3dfaa7b9 bc1377cc 3e2f0438 be981439 bdf5b4f4 3c8149c9 be733d08 bda4a65c 3e008c68 3edb4ab9 3e698036 3d21fdf6 3df798f2 3dab1271 3d6b5479 3c174942 bcae3509 3dd4e789 be47ff60 bb8858fe bdfb9f4f 3ecb8189 3b29ffed 3e025c96 3d523eea 3dbfd41c 3c82c7d9 3d460497 3d04ac85 3ccb8ac0 3ca344f2 3d97c20f bdf3f5da bd828a3b 3d0e3cbb 3ebf9afa bcc796f7 bcce8289 3cb21e1b 3d74bb4f 3d081143 3e1c7711 be00676c 3a882bfd be196103 bbeebb11 bd8266aa 3eb68d5c 3d145aa9 3e0a384b 3f06c20d bdaa9103 be8ac8d5 bc82dd0d bead09f7 3e910052 bdd297b2 be81b3b2 bde8a017 bc84dbdf 3e357b98 bdf43b1d b83c2767 be03202a 3e8c3703 be38f7da 3e8d8d26 bdcc72bb 3df90e2a 3c4968bf 3ecd0540 3d67d986 3e148579 be8b64af be0b8c09 bce9c99a 3d9016e4 bea1e4fc 3d8f2e59 bd6f2d58 bd66eb77 bdcc2765 bdcc08b4 3d8e4ffd bd21ff18 beab4d4f 3d626f10 3e6f4fcf be3ceebc 3c3ff169 bea5f30d be8476a3 bcbb916a be39cef5 3d721f40 bbe4ce4a 3cbb4a1c be2091c6 bdf6d9b0 be3689fd bdd2828b be38ff91 bd652bf9 3e4166d7 be08bc29 bebdb4b3 bdbffb51 be262435 3d7ec077 bd814dc1 bd2035e3 be14ada6 be243069 bd33ef00 3cdd2a85 be323b69 3e0552df be993be1 be27cc19 be52e405 3d718fd6 be19b56d bd6b37c9 bc0e9795 3eaa88c1 be11cf36 3d0d1e12 3d674585 bdcfd525 be232f93 bd60d9aa 3d56efc9 3e802d88 3da3f0b5 bc2f2774 be38656a 3d93fd25 bea58ecd 3ee8db55 bd1fd9d6 3dd8db1c 3d03dcae be5ec2d0 3eadbcef beaad8c1 3d8ed937 bb0ed074 3d6e5792 bd1b7223 3d925271 3d7ef39b bdbb255f bdc1b78f bb409d51 3d8a0649 bb8d038c bd122b7e bc69bb04 be31bfdb 3c8222b9 3bbc2f73 bd3fb168 3cc927c9 bd3c364d 3d24b2e9 3dd2833e bc30a1ad be001f90 bd066e12 3dd6eef4 bdb08ffa 3e412978 3db6f7bf 3b1211cc 3daddcb2 bcee7167 bdb2d443 bc924b41 3d9e5834 beb63c13 bdbe454c bf046f5b 3efb41e0 bc843c50 bc8d2103 bd8d2bfd bdb3d35d bde6c589 3d8cfe19 3ddb2231 3d0dfee8 3e105acd 3dbe8e51 be25a5c3 bd435443 3f044cd2 3b0e178b 3e74b4a5 3c002289 bcb973b8 3cdd06b7 3f063784 3c661afc 3d7c3180 bd7ee880 3d066255 3d065426 3e0969d6 bd1e75bd bd8296c9 3e649be2 be01d428 3deef6d6 be8bba9b bde591e6 be49d410 bc43952a 3dde1c51 bda12cbd 3d9f9c99 bdb65c3d 3d2b80c2 bda93b9b 3dcafd92 bd0cb4dd be4804fc 3c5ac895 3e8c4e2f 3dd06d19 3de57b30 be0e8321 bc133770 3d27e89b bdd4295c 3d006933 bcc5af26 bd78f558 3e73b66e be1d94b3 3da17947 3d8194a1 3dee6584 bd2a7a39 bc9b6c6a bd4e691f 3e77273e bbd3d414 3de1e78e bd141408 3d2ca8f9 3dbe02cf 3e01600d bea94674 3e800877 bcb0f598 be2f5ab8 3e0649f5 3db30020 3d190c44 3d2fd0f1 bda7deea bddaf3b2 bbd5970e bc5814a0 bd5e6c5a 3f124748 bef547cd 3e17d643 be3794b9 bd4765ec 3d5560b0 3ca2cd02 3d594505 bc21e272 3d0ec601 befc4cc1 3dafe416 bd98915e baee7281 bd294ac2 3d39dfce bda26ec8 3ba16ae3 bd265a49 bda645f6 3c885611 3ca1dc73 bc893e22 bddeb7a0 bd9df099 bd313ea3 bf322598 bc861db1 3d776a86 be1e1709 bd75bc76 3c97a2db 3e8e9a00 3c8e3a77 3d9791b1 be24c2a9 3ca4ab5a bd35bca3 bd9873cf bdd468cc bd165b83 be782bff 3c4ea933 bc2021ca 3f054bbf bdf62e67 3cbb1ae9 3e03a4df 3cfd92a6 3c1643c1 3d576699 bd74bb8b bd1cef95 3c4340c4 3cfde6a7 bdca755c bdb1c028 3d4c0d25 bd85d8b2 bdcbf075 bce5658e 3e7333bc bd849d22 3d42531c be9f266c bd9d9af8 be09fca5 bc883f18 be8bafd7 bbe907b2 3e2ad462 be80dc10 bd450a48 be4cc513 3de4d592 bd84d622 3cad31a5 bcaeccb8 bccc23ba 3e6a7f3f be44c379 3e8d5624 be792911 be9c7b8f bea6f00e 3d0b3666 bf9b4e89 3d7fbc6f bea0d038 3dedd275 bdd3668c bd3a0be3 3e07bf94 3d9b799d 3db870e3 3df052f0 3d8cb8cd 3d84c1af bdcee4e6 3d22d503 3ede513b bd34aa4f be00ff48 bdd89081 bd3baabf bca8e002 3dfa0309 bd80e87d 3dbb3e1d 3d3b3401 be85702c 3dcec057 bd3ef6c2 3e3c8bd6 3ed234dc 3d6d8c31 bb81fa66 3be049fa 3d8e5345 3d9ed981 bd1464a9 3e045759 bc811329 bd742207 3e108063 bd7e269e be366cfa 3e0ddfb5 3e68c03b 3e4d4a30 3d0e7cab be420837 3e0e86c2 bd8702e4 bd852b39 be07c668 be928aa7 bd675446 3bda78fd 3dfd086c bb64a6ed bd9f0be3 3d989b82 bc20c9c2 bd16e3e4 3d999351 3dc4520e bc1e3a4e 3da51073 3daae837 3c2f6d31 bb369335 bd3fa922 3e0378ef 3c842576 3d7601dd 3ca284d0 3e3a097a bde017ac 3e50158b 3d245f1d 3d8285b8 bd8f7d35 3c03715a bc6f1593 3dd89ee0 3d532392 3e2a9f25 bd956f07 3e244d84 beb21cf7 be952dbe bf18481b 3ea306de 3c473f31 be10bf65 bc9701bb bdfc00a6 bddf783c 3cb13aa3 bd41de50 bdd223a5 bd2d823d 3d46acc2 bd8cd843 bde298f6 3f1acabb be408fda 3dd43416 3c7cab0c 3dd4a00e bcdd5aac 3eaaef2f 3e2e3f75 bcfba940 3db11fe3 3f263dfc 3d8cc92a bd32d34c 3da9e95e bdf799ee 3d53e1a4 3d0a8bba 3de7f341 3cb7c110 3e165bf3 3da76931 be6d0566 bc95f7d6 bd2666e1 3f29af6c be9366eb bdb87bb2 bdba5ddd be7acef5 3d2ad3e4 be106b4d be5e886b bdbc607c be2bf47d bd87dfee 3dd7a2e7 bdc639ef be3e8930 3cfeb126 be8b38f2 3cb95695 3de38f3a ba1ad652 3eacfa44 3d662dc6 beda4ede be161383 3d209204 3d08aeab 3da8e059 3d37d096 bcd9725f be06bdbd 3d898e75 bcf8d97f 3cd6a9c4 3adff55a 3ddcab08 bdbcfa3c bf6260a4 bd7c9bbb 3cd32cbf be41b9a8 bd00a9a2 bcd1ea4e 3d4354f6 3dc12549 bda1e0f1 3da4ac8f bd75fb03 bc8a7bd8 be0fe20e 3e43ec49 bdc9ec2d bc2036dc bcdcafb6 3db637c7 3a891663 bd030276 bf1a2850 be251ae2 beaacc39 bcd83c94 3d4affe0 3d76b7fd bd6dc023 be305e7f be6fac99 3d2afeae 3c5aa26f bd4c4fc5 3d401c04 3d8b287c bbda313d bd8f2800 bd983f56 3e301fba bf1698de 3d11af10 be1f1669 bdb2d7c8 be1841c5 bdb55e05 bbbc1ac1 bc374b9f 3d65a2c3 3df52c6e 3df42f94 3d5bb414 bdc0935a bf08ec95 3da05f82 bcc54181 3dc421c9 bd87dd9e bd2a3fe6 bd4e3643 bc95888f bef59b68 3e75ab84 3c195306 bda6c952 3f4d2ca7 bd87175c bdab4d9a 3ca19e19 3f1a9cc6 3dbab367 bcba5a15 bd896754 bd44c8bf bd376e4c 3a0ff7bc bd862e9b bda8b1ed bc8994d7 39eedae9 3e5b379d 3cd23f2e 3de60786 3cc73e66 3dbff494 bd9f066a 3e6d8b5d bb86d31d be002f62 3d96646f be722169 bdb7b0ff 3df3d8b1 3e22f012 be098e2a bccf6942 3dd56c86 3e14e99e bc3fd9cc 3dbdff68 3d40a375 bf0a25b9 bd4f3a81 3e376293 3dc61292 3d660309 be931e57 bd4717f9 bdd3b2ff 3e38ad37 be0e9750 bd8aaac3 bd638d84 3df1c63d 3b9ba12b bd156250 be71d57e 3d507c41 bbf853a9 bb43b671 bd2128b5 3d8ab4cc 3d4aaf72 bc94533a 3c893dc3 bcd2bbb4 3dc59666 3d91f13d bd039ad7 bd876cab 3e81c047 3d175fa4 bd2ef6cc bdc99d96 3d68f542 bc331a6c 3cd41166 bdc08d60 3ccb3e93 bed2ef46 bd932c75 3e07281b 3d919fc3 3ca78f6c 3b98c2da 3e1359a0 bd5147ed 3e1c2e71 bd245419 bd371be2 bce83445 3dc1beae bda0f196 3f018f8d bca47997 3de44cd9 3e1da679 bdee6f64 3e0440ac 3df276a9 bdde60ba 3de113a7 bc1c53b2 3d4f566f bcc5afa8 3d1b70d2 3d39e923 3cec39ac bde4a4cc b90f1496 3e0af7af 3d0f1efe 3c065e78 3e4a6a5c bd621653 be513b78 3dee0c85 bdca2cd4 bd1065b0 bd36fd90 3e329034 3d429a92 bcff5092 bded40a0 3ca6e219 be1144ba 3c0fbd12 be1ff257 3f5072cf bcbf252c 3f655cbc bddc5cdc 3e1c4790 3d7e44c9 bd81430a 3dd37cf5 bd7513a4 be02304c 3f04aa79 bcfeeb58 3c70f2c9 3d8e2ef2 3cef9337 bdb449b9 3f244f76 bdbf8efc 3dcf2509
body.stage1.4.4.weight 64 3e1743c4 3e2194c1 3e8faaaa 3e381822 3e40f20c 3d8e0f46 3e1750b7 3e12565f 3df16171 3e328ad3 3e81c785 3e48e680 3e488b77 3dae43c5 3e32f125 3e867451 3e4b225f 3e344ffe 3e6f4b97 3dfd2d67 3e648e2f 3e029771 3dfcffa5 3dd28893 3dde6625 3dfd3672 3dc62e21 3e18fbb7 3e1ceed2 3e3ee803 3e8f2587 3e1454b3 3d8d21eb 3e191d87 3deca46d 3e7eb888 3e7ea9b9 3e76c59c 3dfe5c82 3e2ffb9f 3dea0379 3e2dd635 3e066eb3 3dd54324 3ec70cab 3e4b0a0e 3de0cb7a 3ec42f70 3e0a5c3a 3e6c16c4 3e6a813e 3e44db6a 3ead807c 3e783c2f 3debe882 3dd4cf8f 3e89688a 3e762964 3d9b5269 3e26f6cd 3e53fd5d 3e09a923 3e181a6b 3e6d5fba
body.stage1.4.4.bias 64 3e9074ec 3e8636a8 3e98659b 3ebe2d99 3e0145c5 3e86640d 3eb43ee9 3eb2f9a1 3eab7a2d 3eb77a86 3ed6a858 3ed9a225 3ec43603 3e729095 3e8abc3b 3e5c7737 3ec3c001 3e94cfe2 3e94d12e 3e54a849 3ecac3b1 3e9df007 3e7c52b8 3ea7d518 3ea78046 3e7b061f 3ea14034 3e9623b2 3e9f0fa9 3e1401e3 3e177b23 3e15820c 3eb4900a 3ea89bd2 3ec58cca 3e520def 3dbaa8b3 3b223956 3e9a9889 3ee9ab8f 3ecd3a8f 3e615321 3e837e98 3e9b74b7 3dec31cd 3f1b873a 3e6c18d3 3de2cdaf 3eabc08f 3ed60a4c 3d996549 3ec08653 bd8f9441 3e72016f 3e80d2bc 3f025008 3e8e1ec9 3dd528d7 3eb152a8 3f023326 3e6bbd1a 3e62efb8 3e8407a4 3ea5812e
body.stage1.4.4.running_mean 64 bf2ec8d3 3f04796f bf4f39e8 be5dd7ce beca3791 bede51a5 bf3377ed 3e6809e8 bd92b992 3ea06d14 3f14c29e 3f306df4 bf81c587 3e12334c 3efe352f 3e9e8c49 beff0791 3dc0c354 3facc791 3fde8000 bf10d9a0 3e6760f6 3f14cbea 3de0d4d8 bf0689eb be3b95be bb04fd09 3f8e86e3 bea48745 3fa41999 bea16758 3f7109c4 3e9ed6e4 3e857ffd 3fcb541b bfa60534 bd5d8402 be9be1f6 bc22ac18 3f0f2d1b bf5827fb 3f902255 3f554ef3 bd243b6d bfc2c069 bef740e7 becc26c2 3f17f818 be9826f7 3e976310 bf4cf178 be50a4a4 bf55b413 3f2d2a96 bc212558 3ec21056 bda0b9b2 bf3d0e8a bf6a113b 3dd7dfb5 3d8d1355 bdf36bad 3f49e089 3f316310
body.stage1.4.4.running_var 64 3e40265b 3d89208a 3e304fbe 3e1e10de 3cc642cc 3d03dc1c 3ea34604 3e3008ac 3de450a9 3e6c7e4a 3e2143a2 3ddf1c11 3e70fa96 3ce4645b 3df72277 3e78adae 3e5c780a 3db1dbcc 3ed41bfb 3e9d2a4b 3e21962e 3e0097b0 3e6e448e 3e005295 3e2305e4 3e0c7e19 3dac67da 3eb67262 3e010d78 3dabfcb5 3da098a8 3d9aa503 3d462544 3e0563ce 3e9adaa5 3ddc8479 3e345a8b 3d9d3367 3de1026f 3ec292d1 3e15d822 3e64a8ee 3e18385d 3da1864d 3e6e0cb6 3ebebbbc 3d11568e 3eecde43 3de3d278 3ed22039 3e065a78 3e5eb0ba 3d7d06cb 3e1c0adc 3d6ed612 3f02976a 3e1a8a01 3dd1fd5f 3d8a229c 3e93af69 3e083d28 3d7d0019 3e2e1004 3e8675ac
body.stage1.4.4.num_batches_tracked 1 483476c0
body.stage1.5.0.weight 576 bd204bf7 bcf2031a bce254a3 3d0a5899 befb0c1a bd8aeeab bd1e5b4a be034a87 bcf6623b 3b9fc9e9 be7b8abb bd869832 be639072 3f3a76e2 bd3db5da 3c06b50f bdca45ca bd80d7d7 bc98dcf5 bf3737b7 be3967de 3e1c79e6 3f17315d 3e8e6347 3d003695 be5a3dc7 bca6c97e bd08c34c 3e2bf01e bd90a572 bd99c983 beff55a0 bdd4f1dc 3d7f24b3 be17b14b bcdd68d7 b97b0b69 bd475c58 bd056a6c bda9945a 3eec9d26 bd809c19 3d8eaf04 beb1bbbe 3d613791 3d8fbb6e 3c1b992d 3db145aa 3cfdbc4f bf069817 3dc76934 3d9894db 3cb3baf8 3e2f183a 3cc88232 3da04136 3d32c979 3dd9b399 bf912aab bcf87640 3d64c24d bddcf000 3d182040 be0564ce 3d6eefee 3e5abb32 be61d665 bef97838 3f31a348 be02057f be9e508e 3e98c456 3dd8a521 3d32b440 bce8e24b bd858d82 3f2ad62d be7b6800 be8c26ff 3c7e68e5 3e8cf957 3e4779a7 3f38494a 3ebf2ab7 bccf6b58 bf02b759 be6560f5 be10ae64 be4d060c be1771f0 3e0553a9 be91549b 3d4940fc 3ef126d3 bf165734 3ec26d00 3e008350 beccb9f2 3dbe67ed be07eac0 bea08bd4 be9f59d3 3dffb8f4 3f45fc37 3dfd9e56 bd54d81d be0f6994 bc424c46 bdf891fa 3d911cdc bdbe4b78 bdef819f bebdd48b bdea0672 be196227 3f8fa5ed be0164c4 3ce8c4a3 3d2bf71d 3c5d9eb7 bd5593a0 bebfc8a6 be0459ea 3d97110c 3db7c297 3d6f62c1 3bf85a76 be538a77 3dcb029e be7baa15 3f701a1c be6ace53 3d316c92 be949db1 be755a56 bdd0ce65 be6c3dc6 be56b985 be8e6d38 3f7705e6 3da1ec50 be3f3126 3e8ebb2e 3e26dc45 be5bde4d bd09cc5c 3e4d491b be630bff beeacca4 3f6208bd be904917 be20884c 3e9b96f6 be9ed478 be42414b 3eb08e34 be30d048 3e100557 3e49810f 3ea714e8 3dc3911c befd36fe bb5ea743 bdf29712 bd1e0cfb bda96192 3f42a5eb 3e2873a0 bdc39df9 3e1f0883 3df9b6af 3d06837f 3c54c321 bd585c5b bda75218 3f4d2a96 3e1224a6 bda5c9da 3cd5725d bca4213e be73db79 3dfc6a24 3eb8d102 3e98526d bf3c6582 3ddabc05 3eaa8841 3e8ce9c3 be6aaeda bdf61401 be76e848 bdf16215 bc855df5 be927562 be3b2f9c 3e72ceb6 3f1d01d3 3e212baf bd328987 3ddf1fc3 3db2a15f bdda87a2 bf644454 be8afa1a 3e628f2f 3f28c464 3e575a39 3ca09744 bc75e7ec bdbf9cfa 3e90a1b2 bf1fb22e 3e45b366 3db6a783 beb5bf6c 3e4a4ff5 bc8bd031 3de8c2c4 b9017d79 3dc34416 bf0f9176 be643856 bd853482 be1e54bf bcd14aec bd62b509 3d2abaff bd500531 bd622695 bee139d3 be1f6279 3d1ce54a be34756f 3d679658 bd7befbe 3ccca2ba bc970400 3d1d76fd beeb2439 3d8f7242 3d40f13a be5c55eb bdc57e50 bd371059 3d2e68ea 3c3053e5 3df3c1ed bf4be544 3c26593d 3d9b0ea5 be7a6e4c 3d90c118 be36a64d bed08ab3 be5e6b1d bd6e3ddd 3f64c9f8 3e618c9e 3cb7bcdb be1c7391 be157218 bc35e8d5 3d650bf9 3ce26d47 be2975fa 3f0805cb bd643ee5 bde92061 3df5558f 3ca20bcf bcb35c48 bf00eaa5 bea38bb7 bd5baa38 3f2fff61 3db56243 bdd5b4f2 3e6e6617 3e1c31be 3d27f9a5 be14e01c 3cd739fc bccbabc1 3f15fcfe 3d6d277b bd0a0636 be040c90 bd80ee57 be016f2b 3e25ef4b bbc82c73 3db08a1a bf0ddcea be3c293e 3e1ebe2b be9f385c be1e9808 3d8ebbb4 be24d393 3dc48e1d bd4f543e bf0b82c0 bd88fa68 3d11f146 bec602b1 bd6a0199 bd5a525c 3d05151c bd90238a bcf3ec9c bf4db247 be286f3a bcaa9dda be627dd7 bc2abdf2 3ce4007e bc9eeb77 bc8cd8ca 3cd09324 bf0d272f bcc7680f 3bf55a80 3d86371d 3bbc580f 3dc1aa59 3d0635dc be3e0a05 3e016e7b 3ea784b3 3b91fe02 3d061786 3e5c8b71 3e106506 3d8c736f 3cb68546 bd71c21c bbfe3f98 3eba61fa bce1492d bb91f1f4 3e4b0381 bcc10712 be7b0704 be5a3bdc 3eaa6107 be75b57a 3e9dc2dd 3e14f8ba 3ea78d27 3dd1520e bf1d2086 bc61435f 3dcc45ff 3c9fa85e 3d987911 bf50a60c be7f62d7 3c586489 be06be5a bd2c78c4 be2c532f 3da5df22 bcd234c8 bda7f8a1 bf079b73 be9f7f52 3e2c4bf0 3f2e79b1 3e70fcca bd795484 bdcdc313 bd6287d3 be28a4e3 3f404c5a 3e4096c5 3b217746 bd8f7b3b bd0d8638 3e76f12b be315d97 be641f44 be246cc9 bf1eb25c 3ea1740b be2486b5 3e966fe0 3edae218 bcaf2546 3b825c22 bd9544f1 3d0c396f bed11f98 bdf7d53a bd3ae2c5 3dda50f0 bd33b146 3e13c290 3ecac7cc 3e3cf0fd 3e1ec045 bf8a1f15 be25f46b 3dc4c622 3e0f3ade 3e6fdd43 bde5fdd7 be8629a3 bca626c8 bf020612 3fbab7d5 beeb93a9 bcaec4d0 be115559 bd927651 bd8e2daa 3e02ad48 3d29d99c be26c407 3ed6b398 be34b6ae 3e229761 bed4c96f 3da77cd1 bdab82fc be20991a 3de6ed65 bdb9b955 3f4bd6d3 3e090f83 bd7b3534 3d938168 3cc07324 bd670e91 be12c7f4 3c2b71dd bde7a0fa bf0fc791 3f12f4f7 bd2111e3 3e86ae73 3dfb49e9 bdd69b6b bef647d5 bd9db5b3 bed0eac4 3faaf3d7 be8eb2cb be0a4806 bd00dc80 be32ba43 3cf615af be7308f1 bdde6d4a be1e55d1 3ee3f3c5 3db970ad bd24e284 3e92b0fc 3d584842 3e8078ba 3d82cdbb beb5b283 3f26b487 bcacc13f bf1297a3 3e2ced55 3d12599d be5688ae bdd0a475 bd2b4146 be2a3051 bc8b33d7 bbc0ffb7 bd63ea65 bda61c9d bdb3a444 be82268b bd35f314 3e1148df bcacf5e9 bed28ef8 3f2a1fa0 bef230de be5b3606 3ea3a6ae bddbd615 bd99b2e7 3e890d1d be31d297 3d202f61 bef1e0e4 3ee4e8e5 3da361c7 bd9ef0e9 bdced303 bdbd25bb bd65659b bd584827 bcae4384 bf3995f4 be43a930 3c801da9 be11cd5d bd585b79 3cb9328d be3f2ffe bcb853f9 be402a9f 3f5d82ef bd9dfd53 be0aaff0 3dec0fe0 bdd87722 3c6794b5 3d410a74 39d31dd8 bdcec328 3eb3f9ff bdf4d23d bd4c7389 3e925145 bdad58a2 3c769312 bd417c54 bdd33238 3d260892 bea179bc bd8ee378 3d34c4e8 be8f8227 bcf6d297 bca64051 3e00bf2c 3d5cf238 bccd82e6 bf537547 3cc8fdf0 bcb5d47a bd03c056 bdd6cbbc bd3b4dde 3e838f1d 3da6a56b 3e895cba 3ed0c406 be32316b 3e16a5e0 be2c0fb6 be7fcde6 bcdf4e8b 3df2a92d bcb4df83 bd850ab8 3eb88317 be9e7972 3d3b798c bed4320b 3e80a877 bdc83008 be92e0ec 3e7f248e 3f026f9f bf1f4639 bd25c4fe 3e8c8710 3e1454d7 be23077c 3ca7b777 be32b2ee bd2ec8b9 bd4e781a bec6dc01 bdf138d6 bd8838ca be3a97b8 bde73bc6
body.stage1.5.1.weight 64 3efec0c0 3e6d0bab 3ee2a5ec 3ed8e8e2 3ecabc37 3ed5b43e 3f17fe24 3f0df528 3ef68105 3f11dd44 3f0c6604 3ee668bd 3ef5cc6f 3e945dd6 3f014550 3eb22567 3f14dfcd 3eee035f 3ea89384 3ebb6c06 3ebcbc1f 3f0a164d 3ef9763b 3ee2260e 3eab0c2c 3eaf48f3 3ea16016 3efdb054 3e9dfe38 3eee0e45 3e81adc1 3ec48dc2 3e37f5f4 3ec49cd6 3ee2aa89 3e641876 3ea1afd0 3ea75f6c 3f086111 3f133fba 3f0ba9f1 3eb50e7f 3f075893 3e80c6dd 3ebdcf8d 3ef3fb7b 3efa270e 3e983a8b 3f1861d9 3ef7793c 3e5bcbb3 3f0dc3a6 3f00caf3 3eeb22ab 3eec4df2 3edc9dcc 3e8a8dd2 3eed0856 3eab3a7e 3f0a20ad 3eebe1ac 3ef6ef7c 3f001600 3f3847bb
body.stage1.5.1.bias 64 3e100ece 3f2074ca 3d713e52 3e65ac6a bae3639a 3d68436f 3e97ca86 bd3f83d6 3dc22a3b 3cf037ba bc87bda7 bd05cc76 3e99f9e3 bd7a17e4 bda8a582 3e2d07bb bd17828b 3dfd5058 3e697bbc 3f086e80 3eece9e3 bc317b99 3df3a06c bd239469 3e790797 3ebc46a1 3e6467e1 3e3592ab 3cb0634a bd2f826d 3d7d492a 3e63cca6 3e9bbc61 3e2c9ca2 3ee58938 3f6a5164 bd1c5388 bcd9b929 3d4cff8e 3e7be979 bc1f31a3 3eb2518b bdd15f63 3ee06608 3ed16e35 3e41a3ba 3bf4c899 3e6ea468 bd5ec51b 3edbb184 3e06b7f1 bc691352 be1cb144 3e995194 bc9b30fb 3e39298c 3f14aeb6 bd9a9be0 3e30d7bf 3e36723b bd3913c9 bd534774 bdb1e23e be4a50dd
body.stage1.5.1.running_mean 64 be6ad818 3b350ab3 bce64faa be8a4a78 3b1d8308 3bcff48e bea80848 bbe9dfa4 3e2a2116 3c1fe068 bc3fde6f 3d04c4f2 3d1f6988 bd76d186 bcee1461 3dd8f704 3b7fd46c bc8e80eb 3e850573 3e2658d2 3de91530 3c380309 bc2afd57 bdd1275d be8b871f be4723a8 be56901d be63ca4a ba9ed886 3d8aeb10 3d07f862 3d427f80 bea71dbe beb33ff0 bf03be05 bdd5f6a1 3deb4fb3 3d2dbd13 bcdc2e88 bef3b139 3c7c9731 3dd2023a bc963311 be2f7ff9 3c9dcde3 bd92990d 3ad2580d 3e1fecc9 3c84abc0 be0b9eb2 3d41303c 3bb8d47d bd842c01 bd0be3a7 bc8e43c7 bf2a7efc 3dac767d 3d588569 be83314b bed741ad 3e0540d5 bc605b22 bc24ced1 beb769e8
body.stage1.5.1.running_var 64 3c3e9e37 3b8b99cc 3c99627b 3c53be65 3b78511b 3a825c9a 3cc173aa 3c4912e0 3c118bf8 3c871911 3c8d9fb5 3c6c7aef 3c4e0791 3abe66db 3bfbf6b4 3d294447 3d05ceca 3c23f3b4 3d107364 3c22c465 3c3a5d68 3c29fa72 3b8d63e4 3b9d96c7 3bee985a 3bdb2f8b 3b579df2 3c5946c5 3c1c2160 3c37d2e6 3c6e2919 3bf25119 3b63d4dd 3ca318a4 3c991cb7 3c7075f0 3c14da81 3b8ed8db 3bd1b93c 3ced2260 3c22f896 3c3146f2 3ba57496 3b2b30ec 3c6225d6 3c4f61b5 3b6c8f8e 3d3aac11 3c04731b 3c9bb6db 3bbde61d 3ce4c7b0 3c3a1216 3c38aa2d 3b8888d4 3c7f8ee7 3c94dcef 3c0c16f2 3b218286 3c907cd3 3ca13b3a 3b3f5d71 3b96cffa 3d2c47c4
body.stage1.5.1.num_batches_tracked 1 483476c0
body.stage1.5.3.weight 4096 bd90e8be bc75c65a 3c127a16 3e8b6cb5 bdea0a5c 3d277c00 bc36ec90 3da10823 3eb4c4c1 3dc6572a bde9424b 3dbf6ac7 bcaaa72e bdbd9a05 bc588038 3e3fefd1 3ddb33f8 3e065a2b bd90e984 bd330f7f bc9af78f 3e0bb8f9 3e1f0259 bd47f904 3bfb8a4b be38ab3c bf094583 3e42e103 be1f448d 3d3b9000 3dd95a96 3e197b40 3e06a2b8 bdf995ba 3d86e7fa 3cd72827 bcf4350b 3de2de21 3dc1fc6f 3da28621 bc753649 bd002134 3c7291a6 bed9b0bb 3d582cab 3cf2c1cc bd00bf9c be488472 3dd96820 3ca19505 3d7d24d4 3e0b050a bcf6dad0 bcdfd16b bdb18bfe 3e0cd489 bdabad6b be0d5b56 bd63d9fc 3df8fe1b b9fc3124 3d814453 3e70b494 3e0f371f 3e15565a bd058761 3caf8fb7 3da8abe3 3cb978b0 bdf2d8c2 bdc2adfe bd977629 be189686 3b855112 3dd00891 3d8c909d bd719d02 3d3f9b27 3dcfd208 bbdf7bf4 3cb2597f 3b0575d3 bde8ffc4 bc589e06 bd3ec4a0 bdde828a be014d57 bc35c09d 3dc76f1a 3e2af751 3d70e4a7 bd7b3230 bc73ffaf 3d6a4989 bc7929a1 be9da24c 3e3630db 3e66c355 3d8c81f5 3caa43d2 bc7ab88b 3c6d0fcd bca582fd 3ce8526d bd61ecde bd42f351 bcdcb36c 3ce59e03 bdbd8342 3dc22e9b 3d23dce8 3cb5abd0 bdb9786d 3dcc83e9 3d9e1239 bb80e14c bba63be7 bcbb53dd bd0c3f34 3c917153 bdc35604 be218d35 3df3f9d7 bd32e54d bd36de86 3c9695a6 3d6241ad bb4a4737 3e500380 bd790e39 bc9ccc71 3d9170ce 3bcf9173 bd9b3e04 bd3cbde7 3cbd0413 bca4fb8e bccdaf63 bb30a429 bb629bc6 3e02d719 bd4ccd30 bd50e1a0 bd0ec3c1 3d06936b bcde4175 3ea31628 be0626d7 3d764876 3d48d459 3cbe4a93 bd22440a 3e24ba69 bd07797c 3ddbe586 bc9b59c0 3d20835b 3d2612be 3e1b4b7b 3d177bf9 bdf10348 bdc7f19f 3b3f8444 bc97b5cf bdb399d0 bdbc23ef 3de55bd0 3c8d089a 3c340c4f bdca3aed 3d7238e3 3dead67e 3db02213 3d07b115 3c1b048c 3f5a7949 3be0609f bdd109e6 bda583fd bdc12b7e 3c858949 bcad4b3e bd1a3b78 be0d0fb7 bd884a71 bc57f9f4 be8cf267 3da03735 3d2b3c88 bc7dc282 bc7ad96d 3da38a91 be99d20e bd45ba03 3e3a58ae bea4c5a6 3d4cae9b 3dbb61b4 3ddf5113 bba26a54 bda12a85 3da42ef6 bdf61b1c bbab22be be6d8bab bd25bd9f bd5a0a89 3d5eb4e8 bcb58e9f 3dd11640 bf041735 3d58eda4 bbb0e23c bbf1a166 3db3661d 3d6fa408 be6bad11 3e1c58c1 3e1b2612 3ca4f474 bdd34233 3c0d0c24 be1e4f9a bcf0d319 3e07e179 bb0b4e9e 3d3a3729 bdd3c183 3da69fcd 3cde62f0 be08f8f4 bd43e625 3dd94e73 3b27b858 bdab50d8 3ec24cc8 bd73a4ab 3e13e174 bc65e2a2 bf03dea4 3d8d1706 3e16f5f6 3e9983ad 3e1ca55b 3d88eec5 3dd4ee47 3daea414 3f222eec bd9d241f 3a05d7c4 3e97ddc1 bd96e9ef bd5f3142 bc24ccbb bd3a008d bd86f13d be43ed8b 3e048009 bd5d16f7 bdfde708 3d9e9419 3d5e0663 bc8c7b2f bce9ad59 3df2a395 be13c779 3a8fecfa 3d1470d3 3d331a5f bc863ba6 bc47540a bd62c372 3d4f42ec bc85e50d be339270 3a9906a4 be3b49e6 3e2eb8c2 3df1c7cd 3d075205 3eae6af2 be796b02 3e1bfa41 bb7883af bcbb77fc bd9329bd bc87b5ad bdacd09b bd66c4af bd396c29 be28b6c2 3d87c0be 3ca6bee3 bd73dc1a 3dc24b8b bdf9db15 be671a4b 3e90b43d 3e0c6a66 be376507 3ccae168 bd8030ab 3c6b7e15 3ca84546 bcba97c7 3ddaa37f bdb1037c be2286a9 3dcdf618 3dc9c821 bd72db36 3f44e422 bdd38697 3d240f6a 3d04d51a 3be03413 3e59879f bd68612b bdffc874 3c82805a 3bcd5f02 be113aea bc54e011 3de5a462 3cad8541 3b06d019 bca200d7 3d311092 3e08630a bc40b412 3d5af544 3d6d7102 3d0f03cb 3cc212ca 3e2d0a5e 3d813665 bd0b6c18 3d4e6c4a 3edf2538 3e33a379 bdb898b3 3e04de07 bde24d79 3e03542e 3e6519e2 be2d3edb bd456fd2 3d8f273e 3e643057 bcc3093b 3d8386ba 3d294c43 3dcb6540 3d7c2c55 bc0605a7 bafc89d1 3cb07921 3d945c1c 3d21c0f4 bde1b3c8 be0d0ee1 3d04f7e7 3d967cd0 bc11ce7e 3bc69b0e 3bea2166 3d26f355 3d8b84c3 bd44e228 3e300d70 bba10279 bcfbea65 be05bf19 3da13407 bc74f57d be011df8 bdb7b996 3dd3add8 bedcb854 bd2d83f3 3de70aea 3bdeb76e 3a9ba9c4 bdd5d78c 3d33c261 bd8a9cee 3d3d9525 bd947f03 3edf1ebd bbf7f99e 3e186f38 bda94432 3e2a5d9a bb02fd08 bda7a92a bcb1db0b bdd3e06f bc686823 3d96f4e5 3bd04c59 be3c3f46 3ed27d89 3c201daf bd8f390b 3e08cc89 3dafa45e 3d1174e9 398aab03 3d8041b1 3d85fab9 bc68f4a2 3c119846 bd21fa1f bd549d8c ba4d323a bd2939b9 3d3878ab bc4d37dd bc333fac 3e1a340d bbbdb575 be366ae9 3ec9cb73 3da64bba bdbdeb0f bd31dc0e 3e1ec557 bda3a77b bda632d9 3e1f23ba 3f456a0e bd45eca0 3ecad353 bd949405 3d59b046 be139900 3db12821 bd961214 3f34a4cb bcb11300 bc493178 bdd98e5f be0094e9 3dc53058 3e11cbac 3f02716c 39d9a886 3cdbf781 bdcc7b78 bca1c0e1 bccd51e5 be2d496a bca6912c 3db702f8 be0f6c82 3d7c96d2 3a507416 bd1e4c7d 3e1480e5 bdd80e9d bcbf8ec4 3cd4095f 3c3d8e7a 3cf467a2 3dbb9d36 bc99645c 3d0ef2d9 3dfbda23 3c782916 bdd2a65d bd5f9bef 3daa1953 3dcf87c0 be41e50d 3ccc90d4 3d547c79 3d115bf2 bca1d4a3 bc6c138e bde32b1a 3c8ba815 be420362 3e17dfd1 bcb741f7 3c6ac0d1 bca6da2a 3d67d732 3d39eb20 bd6d2b7e 3dcbe72c 3e66a302 bcca2280 bca8ca8f bd7f5ff6 3c6a704f bd7a6ba9 3da62f17 bcb18fdf 3c19af21 3d3d856f bc64ec68 bd11368d 3d2fb8d4 3d94c7c9 3e15ccbf bbde11ee bc2a15e0 be92d97f 3e2a68b0 3d609f54 3c4283b6 3c416e1e 3b94f9c7 be79be16 3e81c006 be24277e 3de92a8a 3e352682 be63b799 bd59a9c4 be4897d8 3dec5fe7 be7cbc1c beaafa0b 3ba992df 3da71e86 3ec9bbfc bac83e0b bdceb8e5 3e9d9a9b 3dc05ffa be27257c 3d52e90e 3d85c8f6 be56834a be049bd0 3db2ffd7 3b1d9b04 be869859 bdfb417d 3e2b319c 3de58af6 3e243992 3d9d8b10 3bfdcdca bdf52f44 bd04c8c6 3d8382bf 3dbf80e0 3d45e136 becf8aca be3377b4 bdadad45 3e669d0b 3d28e199 3e20068f 3dc8c491 bde20a89 bdc90a3f bc51c826 bd8d5192 3e85617c bd87dcbf bdbcabde bd843a5d 3dff5e5b 3c5eddd5 3ca16d38 bd983974 3d6c12df bcda9003 bea080f1 be42650d bd85f302 be7ddeec bd9ccc8b be02180c be1b8148 3e208fd1 bdca7b9c 3b9e56c7 3c80653d 3ca71948 bd59000f bbcf6cc1 bd11fbe1 3cec7ccc bd94a608 3eedb88f 3d52069f be4cdacd be000420 3df97a56 be2b88c2 bd88c483 3dbe91be bd833b7b bd75dd47 bdc9d867 3cdb1363 bdff9edd bc221187 3c76cf10 3ea7c6c4 be321fb5 bcc50ca6 bd113ac1 bc9209f2 3e02cb06 be1e50d5 be0e23d8 3e1c7802 bdbe4fd8 bd2c5a80 3e403c97 be25d1c1 bd4afd31 bd880578 3dc91b59 bd982c2c bd1cd1f3 3e96f652 bce462d3 be15ff7e 3b073cd9 be56d68a 3d50d737 3e07b09b 3c985952 be7e7f73 bce0cc2b be5a36e0 bc2fa4b1 3b609ac9 3d980d24 bdfa5dad bad1ad13 bd8fb09c 3e546a49 bd7a3c12 3e3a5f8a 3db13901 3bd2d53a be1200a6 3bc8e7a5 3d0848b1 bce5c8c4 3b739073 bccccb5a 3e830645 bd328060 3cc53c43 bd2741d8 3b974c28 bd1b62d2 bf22e694 3de6e9b7 3c3885dc 3e347c4c 3dc2f2cc 3cbce266 3d04e7f5 bbf84a3b bce8de04 3d8f9323 3dca9c22 3d6502a5 bd8ca28c 3ee77871 3d286b2f 3e8024f5 bd86c7f4 be87203a bd9ec172 bcd7532e 3b749194 bcad3453 bd09be27 bddac473 3c60b085 3cce8a30 3d38c942 3db194d6 3dcb9385 3e071c32 3d9938e6 3c875f24 be8d5534 3d32f844 3e5916a5 be67a361 3d7413de 3bffd39b 3deffd11 3ccb9010 be00412f 3cfae0ee 3d11ac89 be995861 bd1033e5 3d56b953 3d3b25c8 3de77ea4 3d80420e be60d0f9 3d999745 3e236df8 be6fa802 be0569b2 bd000aeb bd0bcf68 bdba5d16 bba457d1 bd6f65ee 3e4f34ac 3e450960 3e115ee9 bd1df45f bd964f76 bcbb7cb1 be0a1978 bda6f85f bd841cf6 3e2d1278 ba31b3c6 be5ab35b 3d8f795f 3e0fcd34 3d8229a9 bd9dd665 3c8f94f2 3d373e4e 3ea58c4e 3d2f59e8 3ce64cab 3e899cb5 3d830f9f be0595ae 3d824e58 3e189faf bd6b66bb 3c71a4fc bceb7a89 be6a77b0 3ebcb9ce bd5337d8 bcc7e52e 3e6283cc 3d26826e 3cf24467 3d993bb2 bd676b4c 3e10a244 3ddd8f62 bd99ff13 be6e759d be117b3c 3dcf8d26 3be4a9ab 3e954f03 3dd15091 3d7441fd be2eb548 bd2481d2 bd8d529d 3d8a3e9d 3d2b2669 ba81de59 be9eafe7 bcb8b8c6 3e314b35 bd9838bf 3dc7ee7f bc38f132 be02af4b 3c88dbaf 3e63dd06 3dac345a bcd1c179 bd8f0ce3 be68b7cd bcfea651 3dbcb9b0 3ea50abe 3dba8933 3e5971fe bcc7f64e 3f08f4bb bd8854ed 3e4f11ec bdb57808 3e17c639 3e34037d be1a7875 3c7e0ebe bdfc5007 3e2a44e3 bd3873ed 3dfbefe5 3e64ef8f bc695c05 be0a55ee be2ba933 bdeac379 3b868b4e bc299c5e be21bc32 bdd13de8 3d95ab7d 3ebfbb13 3d3ae21c 3dc32538 3be3dc8a be6b1ffc bd053961 3d5f7518 bd463738 3f0032a2 be3236a8 3de40eb2 3db9856e 3e1ba1ee 3e18f30d 3df2b830 3e95d5df bb590e0f 3e65a6dc 3d01c34a 3e49d8a2 bd98e8ab 3d0a073f be8fea74 3cbfd457 3ba14d51 bce1194e be567da4 bd90332e 3cdf2567 3e2ebe07 3f0e02e9 3e176522 be0bdaa2 3e1b8c1b 3e229de3 bcb6d7cc 3d3762b2 3dc8bf53 bd909e7e 3f2a86c6 3db621a3 3d28ffbd 3df8fc08 bd2b78ea bd35a7a9 bd585cff 3ee8cbce bdf542f1 be0a4db6 bddab5f0 be097187 bddeb52f 3efebe26 bb20a59b bdb91854 bd3f4854 3db2bcc8 bcd715b4 3e9d59b7 3e4052cc 3e7b5173 3d3de456 bd92d2a6 be62ddea 3c9b4a81 be4e35de bd39b630 3de7f6c0 3e4a7a89 3bfe1c46 3d8568eb bc2892aa 38ece3cf bd9a6889 3ef553f1 bdeafc04 3ea0e7df 3e0b746c bdeb326d bc730607 3ebc523f be199a1d bdb487d6 be8db81e bb73e2f0 3e2c8656 3dc2f96c bc8499c5 3e7d6247 3e38a748 be6271c4 bdc70b9d 3e2eb7f9 be9e14bb 3ddae1bc be02cce7 3e07a45a be4d1f83 bdcbeb06 3db422b6 3dd9bf4b be1bda3a bd912c17 3d5e058c 3e233c80 3dc18afe 3d99e48f 3d7f55e9 be55d4d6 beb176f4 3d11ae03 bdbc00af bda3a410 3d387bb0 bdb8361f 3c606b8f bdfcc69a 3d27d4a3 3ece6674 3bf1726d be49e99c beba3f10 3e0bd0ce bdac9aee bd7ec939 be0790b1 be2194e3 3e77dc02 be0b8c89 be18d066 bed6caf0 3e5800b3 bd490f56 3dbe7415 3da04f88 3deac03f 3ed2ca33 bd70616e 3dd3f446 bde38178 3e6ecae7 3ceb775b 3e8bda50 be80b981 be0a7075 3d00e610 bdd4b66a 3dc99ccb 3dcf536c 3dd2f56d bde52d12 3a84e44f bcf6175b 3cc66c87 3e129080 bc8faa6e 3ae24ac9 bdaa941d 3e1eb4fe 3ea554d9 3e0518f1 3d31f0a2 3e1333e0 3e6d2ab5 3d1a2333 be0f09cf bdc5fffc 3e328274 3cc01b36 3d898c2e 3b798669 3f51bb40 3dddf301 3e14071f 3cd5486a be0dd6d5 bda8f81c 3e21619b 3c95b512 3d377e75 bdd3dda8 3e18adfb 3d97e4f2 bd96b3e3 bdcb0d39 bdfecb23 3de3ea30 3d72e11f bdda62a1 3c90db01 bebb5439 3e062adc 3e9a8d69 bd9924da 3c1d16fb 3e43c5af bd61b9fd bd1694bb 3d87e000 bdd5074d 3d3216fe bdc61257 3e488130 3e12557a 3c90342b 3bc79323 3ce438b1 bd818109 bc54c080 3da9a225 3d59eb24 bd509812 3d3ea86f bd6ec764 b6c472b6 bd677fd6 3d1ce437 3c403799 bdfc3b83 3d15a399 3d8e499d be4cef04 3df4514a 3d932048 be2d8dec 3d2e1ee2 be286162 bdf401d0 3d8984e5 bdd32a48 bd9001f1 3d7e6e4d 3c0a7d35 bd809cfe 3e14a034 bb66a7b9 be14257b be1df2c7 3d89da16 bd59c559 bd521348 3d7b3a37 3e00b568 3caf31ca 3d16daad 3cdc69dd bdc000fc 3de6f887 bc3be6fe 3e3071a9 3d541b51 bd535a0e bc3ce901 bd29314e 3d356304 be0e1bc4 bdd25589 bc6ff884 be05d69a bd1353a2 bdac2c17 3d8860e4 bd8a6859 3d7f2098 3c9c64be bda55f19 3e0492de 3e15d518 bc62dab4 3a30acc9 bcd9f99e bd20c2d1 3d4b7a0c 3df8aedd 3d6b9981 3d04b722 3d451a0b 3d8b71c0 3dff127e bcb85ab2 3d51c8af 3dbdb301 3dead150 bd974bd3 bdcbbedb 3e5f1b23 be3c60ec 3d678c52 3d79a98f bd445a5b 3d2f2762 bd0e42d8 bbf6eb12 3ca595e7 3cacca86 be459684 3db91acb bda04925 3dabc0b5 bccba2a1 3d68de4e bcfa0bed bd845420 3dc639b3 3e0004b0 3e04d57e bbfa0d56 3dac7bb0 bde9e591 3d7e1a2e 3b87d978 3db59dc1 3b2c33ee be397d05 3d7eded8 bd1a0dbb bdd68bc0 bdef0ecc 3e631977 3d6c32df bd377cb9 3da81d09 3e653366 bce57e72 3cddbb75 3d09a64b 3e0b0876 3d67860c 3d767056 3e05a732 bda58adf 3caf67c0 3d83f5d5 bcda0eec 3ba02e95 bd8cebe8 be2fae14 3d5c5e33 be7697c7 3cd964a6 3d2fb382 3d819576 bd8734cb bd9025dc bd1401da 3c9c4efa 3b46532b 3e23edcf bd236882 3dd86ac4 bd3f2224 bea09f3d 3cc3f590 bc600b79 3c62b34f 3e2e25af bddaf474 be0b9100 3d59c337 3e02c125 bd359644 bdb1c68e 3cb02369 3e28d5a7 bdca5164 3d4bf31d 3cf24964 bd290c23 be4ea90b 3ce81759 3ca3ee7e 3d391b29 bd788b23 3cc2153b bd444d0e 3dbdcc9c be0392f1 3d9a4127 3e6a75bf bd4676d5 be4a192d 3ce1a218 3f184373 bdbdbf52 be59ef2a 3e8f2528 3da60923 bd5fb63b 3e204d09 bd442c00 bcaff3b8 3d43adbe 3cc9dbe9 3d86727f 3db80198 3e17b0d7 be16c8f6 be258095 3e23a82e bda4bf0e bd0caa24 bd800ea7 bf005133 3e667a55 3bf9c52d bdf7f6c4 3e07c030 3d8638c6 3d8d5cb1 bd8833e5 be500b95 3dd13bfe be27f2e5 3e54ee10 3d470192 bdfb044a 3e1bff5c babd0427 3df45e41 bdaec918 bcb2e2e0 be133418 3d0d5875 bd3ddae3 bb95e796 3d9d3479 3e106c73 bc25e9d4 3dc4d598 3d955e2c bd8121ef be2bc7d9 3d1621e7 3ed86979 bd72222d 3c6bbc6b bd2000cd be12a5cd be01ebf2 bd826f20 3d01330e 3e1820dc 3c5d137f 3e900b4f bdce6c6b 3da6f82b 3da238d6 be32967f be239bcd bdd62871 3dcacabb bc445d37 3e02b88c 3e90c2a3 3e2b1de3 be3d5d2f bd9ff52d 3d8ed2e9 bd202837 bcdf7d7c be36561e 3dc21932 bd04058e bd8d02aa 3d82c361 3c032d09 3dcfeddf 3c974e2f 3e2fedf1 3e95e22f 3c8ac01c bca46cb6 bdbaf48b be9cbc49 bd94fa28 bd437fc8 bc897699 3db07a42 3e39c007 3dec3bb3 be8d4d62 3e07e99f bddb2e87 be8964ab 3d6e856a bd8f2170 3d5f1bde 3e90eb57 3d7a1503 3c00f27d 3c74e385 bd4e6e78 be7025ea be7da124 bc3c95a7 3ca7ae1e 3d994fc8 3c491d53 bea50d8f bd8a23e7 3e7d344d be485c81 be84bab5 3cf83bd5 3d826215 beb03c9a 3e82bf36 bcfcc9c2 3dec8b49 be3228f9 3d366813 be2cd3d7 be534015 bddb14d8 3c1e633d 3ce64934 be0b3242 3cf5a639 be24b022 3d46b8ab 3b86f8d2 bdba428e 3e59602f 3d5f4af3 3e669765 3d914fbc 3df7e4ad 3e7b0b9c 3e2a7237 3dc828bc bdfdea7f be3ed92f 3dad7a9a be5b23ca bd4a3ca4 3e404f16 be81afec 3d393e18 bcbb3d65 3b3fd0de bd21f5b6 3c16acd5 bd0994c1 bc5871d8 bd1792bd be1e816d 3e3c9f67 bd05e4ed bce1cd9e bd95e745 bec38017 3bc49250 3a409f94 bede4e69 3deb2530 bce34a60 3d0b5824 3bc4939d 3e148a20 3d13711c 3e04e1ee be853292 3c6c9724 bea32898 bd456190 3ee09cb5 3c8ee7b4 bed4af86 3dddb4cd 3d8fdb8b bd4241a7 bcf87476 bc5bc51a bdd27546 bb085dbb 3d3d7ecb 3d0d0de6 bcd2d758 3d46d255 3d9434aa bd27499d bd26c18c be4de22c bbda07d6 3c64ed38 bdc72748 3c965012 3da04fc4 3dacc92d bd2eeb8f 3c9da81c 3e09c31e bd30b097 beb3218d bd910631 3d42ccbd bc43d20a 3d7adf1f bdba19c0 be467833 bd7a3e37 3d03a14f 3e30dee0 bda9fea9 bd676926 be464285 3dc51140 3cb8032d 3e2956f7 3ba150a3 3de1ed38 be40305d bd8f97c9 3de4d3e5 be1d650b 3dc0d35f 3bd521ad becc8892 3e051af9 bd2f8a68 3d3d687c 3c73eeac bca2e81a bd9a21c9 bd51bf03 3dda0233 beb0b831 3dcceee1 3c7a10c5 38bff7da bdf5b4da 3beb62bf be2e6af5 be578eeb be90aa94 bd82e68c be001fca 3d84e54f be22e1e0 bdbbe547 be864be9 3d238522 3e90af54 3e090231 bca9789d bc9e0f15 be22c53b 3df5279e 3e252330 be2e5fe7 3d0355f3 3cbd7656 bcb962ef bd245d8b 3e469c91 3f0b7c3c bd4855c8 be200bbf bd78378e 3da5c2a1 bdd0a791 3cce6900 bded4165 3e0d9151 3e5035f8 3e1edb82 3e4f775f 3db229bb be252602 be667fe8 3dafd680 bdda8f35 3dfd2b17 3b762a94 bd86cbee 3de4b20b bd8cdadf 3dad7253 3da520e3 3e1f0295 bbe6e60d 3dfc880b 3e0a964a 3d6b667f 3c8df73a bcc85fb1 bd2b4d4a bca9ab0e bd617d99 be423c9c 3c49ab1a 3ed26466 3d59bf52 3c9c1183 bd271cc3 3d96b33b bd089adf 3e14bf98 3ca1e2eb bda0fbb4 3d6891ba 3d699d00 3d5d1267 3d56b252 3dbf109b bd4e6dee be48bec4 3b2a9db1 3db33e06 3cc5fd62 3d0ceca2 bc402c75 3d68ccbd be3e94c6 3da9d595 bdf76ddb 3bfbcf6c 3dc60636 3dcdfd8e 3dcb471c bd1e1c1c 3d019a73 3df924e1 bd70361f 3d440c5b bce008e7 bd1d6e0c bd6419d2 bde52739 3dd42af2 3e46f612 bd899fa7 bd6322db 3e0edc76 3df6c1e2 bdee9585 3e97c345 beb41176 be0c9b24 be06048d bd4b2ac2 be184da6 be038b7b 3e7e59c6 3eccbfb4 be1fe63a bf083610 bdd2a51a 3e00f47c be629906 3dcc902e 3d4bc56f 3db062ab 3e7812fb bed8ce0d 3d2beec7 bcdf1555 bca6ed04 3be6a4a2 3da58ba2 be201370 3cb45c9e 3c22ece1 3e233648 3d6e458b be9df77e bc607f6c 3e10541f be09ce02 3de88781 bdbc4379 3d339b54 bda336f7 3d0b4ed7 be038b98 3dcf8703 bc761d8c bb99a79f 3e48fd67 bd875c1c 3e9bf244 bdfc17fa 3e164ae8 3e51f0e2 bd7663a0 bbfbe59f be3104d0 3e3ff128 bd3c0fde bd858e3c 3d9915c4 3d13aa33 be2901f3 3e406999 bda691bb bd0e8d96 3c3fc827 be0e2659 3d17a685 3d4d2117 3caa9a98 bdbb9e3d 3d6bea0c bd5906bb be1365f1 3e0208c7 bc319fdb bd82d1f3 3df186df bdf0c733 3ecd707e be65fb02 bdb4eb1f bda9e5cf be16ee19 3e7e3277 beae884b 3d19c135 3ea9a0d6 bcc54ea9 3d2bd727 3c804f63 be500d0a be698308 be0d577e 3e1859ce bea4ac45 bb26ae90 3b9e0e54 bdae8247 bdb7c779 bd257c80 bd75f939 3c836126 3de4b11f 3cd89589 3d046017 3c4b22e9 bdcabf28 3980d0ec 3d95ea2e 3dec9c6f bbedb662 3d3cbd0a 3e052b9b 3d184a81 3e3562a6 bf0053bd bc31af63 be576791 3e3c4e40 bdd47a51 3d7a35ef bd9de922 bdfac38c bd17330b bd6b7a36 be2d4444 bd1c028e 3e00f035 be52f49e be793f49 3e596b3f 3ea74f0c bc0c09cf 3eb0d5e9 beac1115 bd90ea2c 3d13fae2 bd27633f 3d470e63 3e7e93f8 be44c10f bd2af9ac bbd6d07f 3e95a02d bdc41818 3d12aacc 3e302112 bd89d645 3d724a91 bd0b2f6e 3e5d2505 be2cd5a7 3d8cba54 bd6af9de bd8f2f93 3dd1aa91 be9a292e 3e0edc04 3d88dfed bda5d6c0 3d82f1f0 3dad37b7 3e0c721e be811b4a bcc20e09 3c639f9c 3d7fac63 bea324ee bd236bf0 3d0a74bc bccd2ead bdc73bb6 3e4aa512 3dc677c6 3e45a28f 3cf2243a be04a743 3dae4332 3d8fc280 bda4444d 3e2a12f0 bdab4417 3eb1e24f 3d167ae9 3e32c3b0 3e2cda14 3c8110a3 bea819d7 3daddfb8 bccbf650 bdd7aa7e 3d32c6b5 bc62bace bd835827 3da86e49 3ce3d231 bd0cd814 be0b1706 ba8500c4 bcd11033 3c8927eb bd2c0d5f 3e586e4e 3d5b2809 bd80b07a bdb98b71 bdf75e7a be318042 3d88df17 3d7f5ac1 3db449bb be566b17 bddcb345 3cc5e9ea bd3babce 3d2814eb 3d72dfd3 3dc0fb94 bbc441c7 3d90f027 3c87bcc8 3d652947 bdb3138d 3e3f11db bcc83fe1 bc0aff6b bd5ec7a3 bc18fc1c 3ea65c62 3d544c42 3e80aa36 3d950122 3d4d0613 bd464421 3f0d8807 bb567469 be025ab6 3e006e44 3e1f75ac bdcfd65b 3c021389 bd38700a bec04194 bb40eff2 3da94b51 3e2ccd3f 3b8e943d 3e11019c 3ad4f8ae bd6d131d bbf61e6a 3c10b1a5 3e365c73 3d277214 be19e083 bdd204fa bd097862 3e6164f2 3d5ebaab 3e2e509c 3e61070d 3dc7724c 3deef59d 3e1fb8d5 38fd6574 3e2c1b99 3da44059 3e65a7cb 3e050b14 bd55a795 be5676fc 3e0fd862 3e65005d 3d66dcc4 3dfcbfe8 bcfc3f24 3d130b2e 3dd9b77b 3ecce9c6 3ca4bd03 3db086ef bd07e98f 3da08a21 3d2629ac 3ea3c72d beac7efe 3e06a18b 3e1aef7a 3d2d5809 3d53b173 3e074f67 3e3e565a 3dbc0a06 3debb6e9 3caa8ccf 3e862071 3dbae85e 3c2ad22e 3d8d0ea6 3e81ae47 3e8bc01b 3dd25c3f 3ddc4947 3dcf9d1f 3e9ecede 3d89b845 be18b467 bf034214 3c8ba74e bdf4c410 3e4d5062 3e40f980 bd18b30e 3d4ef897 3e4406ac be6833f6 3cb94a8d 3d8e2524 be1a1c45 3e3781c8 bcde9ba1 3d80d5f0 bde9cc8b 3c2fed33 3e019d5b bd8d2adc 3d28079b bda5c823 3cb6b294 3c2bdabb 3d2bb7f9 be43973e bd6a39f1 be04fcd5 3da2bd45 bdd05dd3 3e0a7046 3e710e65 bcb6d74b bdef5872 bd9c236b be9cb521 3e1c9ce8 3e18f81e bd76f8de 3d9ce281 bd9cc270 3dc686e5 3eb38977 bf0284e1 bcf749fa be581f02 3e122dce be3d400e bdd6bcd2 bd445564 be065cc7 3a47b761 3d6612d3 be2fdcf2 3ca8bd43 3df3f3b3 3cee9aaa be8f7ea5 3c933c54 bd15a2e7 bdf9ba51 3f081e76 3dee583b 3c4443ca bd312289 bd9e678f bd83e8c9 3e10c5d2 bded4898 3d48b601 3e3b8745 3d778c68 be0a3b75 bcbd50ea bebaf532 3c83b690 bd1585d8 3d58fa89 bdb40713 bd72a43f bd4d9588 bda1a031 be16faef 3cdec4a6 3da2ed51 bbd62a15 3b2634e7 3daebae6 3dc3a8b3 bb678f95 bd2ebae0 beec3012 3e1ea9f8 bda53cc8 3d8255d5 bc6e6570 3dd31fe3 bd8812be bc41a131 3e2962ac bda130cf 3d11169b 3c75ba4c 3e32d76d 3de5918e becd1d15 be0046b3 bcaf4d80 3de2cb3f bcb2443a 3db62adc bd1547ee bddf7a9c 3aea1ecd be34bcd3 3e241bed be7b743b 3dd437af 3de1482d 3de91b7c bd85aa9d bdb2094c 3e273410 3ed212e5 be77a638 be28963e 3dff7f7f 3dad0cf6 be484b34 bc6202d3 3dffc7ba 3e1976f7 3d32b60a bd11e0a0 3d6131ea bd8c6458 3d7ebce5 3d563433 3c98ef16 3e67a8a4 bdf4ecee 3e25327a 3eb059fa bedfe67a be1f4059 bdabccf0 3ca28b27 3e3533fe 3e13861a bcc3bfda 3c59b9da bdba3ff6 3cafd0d0 be2e2006 be1705b8 bdbb0faa bdcefab7 bc9e52d2 3c601b80 bc193b06 3c92be54 3d94a4df be0b51c8 bcad6ac6 be1ee476 3c92ea5d 3e974ca3 3c9c8431 bd6920d4 3d13b323 bdedb44f 3e6259d0 beb4769a be261490 3ec12623 bdf2042e bdd9fe1f bcedd484 3e04699d bd2e0609 bddc9b41 3e90a92e bd867107 3e23ac4d be1bfb9e be670673 bcd9dbb3 bab82153 be3c4794 3e34727a 3d3d2cea bd9576bc bc952de1 3dae4dc2 3ee634b5 bd1f9a1f bd93c17b be1161d0 3e376557 bd202b23 3d93ce1a 3d8c8d50 bd08bcc8 bdebbda4 bbd80ea7 bc28dd18 3dcc5e7a 3ea1cfbd be5af97d 3c36ac9e be6bd8a7 be800dee 3cc379a9 bd71544c 3cc9f722 bdd38178 bdda474e be523e83 3ddfcd0d bbc02eb9 bdc059b1 be676c56 bd59dae6 3d41d681 bd016b23 bd994386 3dc5fca8 3d85ca73 3e45d26b bddccaa1 be807eb8 bc18196e 3be04ac1 3e804190 3d8dba36 3dc15b9a 3e1544f0 bc81cc85 bdc09eb2 bde1d287 3e0af8b9 be04555a bd645f8f 3c0a4f34 bd5ebd98 be5908e1 3f0d54af 3d5e46ce bdd5ddaf be9abbf0 bebe8ff3 3d4d2612 be9895dc be42b04e 3cfaf923 bdba99ac be1465e9 be4788d8 bcf7e9db 3cfbb12d 3de96ec4 bc47c165 bd474f4d 3ca54443 bce5a529 3b57d3af 3db48d00 3dc4b778 bd0bf31c bd841d64 bc1cb557 be519fc4 bc361a8f bd38a162 3ec07ed9 be34bb02 bdac01d8 3e197288 bdec359d bd6e8b59 3c818a96 bcd7bb5d 3e50a8fc bda49076 bed444f2 3cc8e309 3de81a83 3e8e72b9 bd945831 bd179cee 3c02d872 bdac0372 3e9111d8 be625898 3d691282 bdf43352 bdf36d35 3d014db8 be191e13 3f151a89 be34f893 3e31c5ba bccc00eb be472a91 bda252b0 3dc8d21c be1b1c31 3c1098a7 bcc1d7ce 3d237c24 be23b3fe 3d1c7eac bd04caab 3e56ec72 3b45db63 3da180cd 3cd2179e be1379aa 3da09543 3cdb2349 3c52151b bed9ae8f 3d1d1eb5 3cac4800 3b3967bc 3dcd8009 bd27abac bd222c26 3eb11039 bec13793 be607b0a bd8d2a66 3d092dea bda4c5ed bd516c6e 3d49db8a 3c5e4061 3c830870 3e23c2d9 3c8866b4 3d9f3821 3c40f58e 3d291c2a 3d14fe81 3f2fee56 bd17a325 bc2a0223 3eac318f bdaf4b5d bd217055 3df028c4 bde19bb3 bdd6e8b1 be43b926 be4c954f 3c05e8e4 bd0c153b 3eddbe49 3d161b35 beb01577 bd0cc1df 3e23ad34 bdc1a2b4 3c11f770 bd26d980 be322a38 bca25ab0 3e0b04d9 3d1662d4 bd810e7d b7a8b79f bd958a14 bdadc216 3dc8ebb5 3e4eba02 bc020510 be30eaef bd9723c5 bc2fd761 be50e2df 3c5ef396 3c86f2de 3d855987 3d584bac bd866f3c bd6c7ab9 bc606657 bdf58911 3cb60cf0 bc31b64f 3cfd43c3 3d036370 bc036161 bdaaf98e bea6d407 3caed742 bd3d54aa bc8108dd 3e2c7143 3e11024c bd17dd84 bd9a3937 3d62482a 3d638eae bccf2eb5 3b5a754b 3da060c7 3d3acdcb 3f32a670 bdbe42be 3cc7fa96 3e9a87f3 be09167e bcf681ac bdeb6f70 be744738 bdac27b2 bdf029dc 3c1e1965 3d726bd5 3da6e5f6 3e3f87f4 3c92f996 3e46ad93 bcd7946d 3ba42123 3d04378e bc25a20d 3d1d37eb bd427c43 bd9aba63 bdfd1d84 bcf77dc2 3c89d763 be2381ba be5505d0 3d504990 3d602e05 be48857a bd0a6ad8 be193cab 3d1576aa 3e25850e 3dc0385c bd7103ce 3d922f60 3dda05c5 bc76329e 3e76d104 3d3979e4 bc8cb173 3e7442e9 bd103eb9 bbfae3fc bbda3b50 bddcd3d5 bda96f36 3dc3faa5 bd43f758 bd67b8e7 bda20ef8 bd2ac9c1 3d6db0fd bd31a7bd 3e092d14 bda7ef4f bdbdbc48 3e1793ec bd10d4dc bcac3d7b 3c0dfc9c bcea660b bc6fdcf0 3dea1b26 bd672964 bcb3f34f bcd9d6f5 bd77da17 bd9e6d6b bcb11379 3e727f4a bc9947a6 bcb8fcda 3d42d617 3e8a4f2a bd539fbe 3d19cea7 bdb8ebfd bd7556f3 bda4b633 3e14d3d7 3e98e154 bd61adcf 3c9ba437 3de1b33d bc0a697b bcc5cf6e 3d7cd4e8 be5187e4 bdaef4ca bd8bbafb 3d005930 3a26336f 3ce16d9a bceed94b 3c732bc6 bdd3b68f 3da783f4 3e219ce1 3de49bc2 bc74fe69 bce2fb44 be0712dc be036e30 3d295a09 3dee6d22 bda15984 bd89e462 bc18d5ac bd932c3d 3e8d0df2 3dba9cc9 3d09d9d6 3ddf63b1 bdd1bdbd bd84aab2 3de6c880 3ca18b95 bba0550f bd33bace be41aa67 be3e68f9 bdc11242 3cacd848 bd827ef2 bda6cf58 3e02cb29 bcc17fbc 3e104248 3d750120 3dcfb63e bddb6a8d bce71318 be7b9c09 bc6ae611 be701b1d bb700d7c bdca82ce bdb10cb4 bd870903 bd8b8323 3c35f0a6 beaf2ae7 be4749cf 3dc99f5b bd91583f be209d7c bd2fc4f0 3c1ff49a 3d302345 bde82b6d be867839 be8eea0c be0d3644 3dbb995a bd33690c bd9a5bcb bdbef478 3dd4d582 be0a7b69 3b4fe326 3e6ee703 3d16b493 3dc1f9cd 3cccbf49 bd199334 3d329497 3e778c02 bd6a4d5f 3e6b533e be091e90 3c41ac6e bd84cf7d bd434af7 bc744bfa be30e01d 3d8b0745 3c2acc07 bd0b464e 3d77805d 3c0895c7 3d71e27d bd697809 bcf33b2e 3d324f31 bd09ccae 3d4e4432 bdd0dbe2 bd647b9d 3df5bb08 3eb13d71 3c90b5bc 3d42c7b1 3f3e5e12 3d7897c7 bc9a53fc bd3743ef 3d7ba31d 3d91ef8c be6a71a2 bbc56511 3ddc8081 bd4c550d bbc311d4 3d425509 3c80665e bd86c07e 3ef56ea4 3cffa34e bd04c2dd bd991803 3db1f2b0 bbe182de be24194c bd921b8c 3cc64e2f bebabbd6 3cff68ba 3e4b3421 3d166228 3cb10604 bc81dcea 3d38f2b7 3c48421d 3de13841 bf07befa bcc6eb73 3be0d062 3cdf1b64 bce2765f 3e31506c bdb4349b 3cdf3713 3e93ff33 3d54fc66 3b856b15 bdd7e6b8 be0a13c1 bd3f76a7 bcb94ac3 3e5d27bd bc5ca3d7 bd1d4805 bd2ed7c9 bd9b8bf0 3ecf8188 be071053 3dd47cbd 3e4ac5d2 3d9cb451 3eeb20bf 3e08d900 bcbf0ee1 bde278d0 3cc7a6ca 3cccc315 bcaf88b7 bce98684 be27c084 bdba02bf 3dbd8eac 3d7de469 bd675bc3 3e3176ac bce3cc7a bcb35da7 be6f0f88 3d12196a 3db6e7e0 3de1d28b 3d22ae2a ba07cce3 3ea8cfd1 bee2c488 be351534 bdd94644 3d7e8467 3d6972b3 3e8bf701 3dd5cd8e 3cfa23c8 ba8ed8d6 3e05a6bb 3effe2dd 3e24bbff 3b95fbe8 3d9062fd bddcaf84 be55f1bb bd567715 bd9a0acc be2bb3f0 3e08d3d4 bd0c5b94 3e4a607f 3e6583ae bd9d12ec 3d9e0bc4 3d3c2729 3d1f0fcf bdbef0e3 be0018ff bee63bbb bd0b6aea 3d24eb6b 3dc40bcc 3d34ae5a 3d572773 be1d4270 bcd3f3aa 3d951f19 3e5c4669 bd72fa78 bdde005f 3e7ad046 3cdce6b0 bab5067e bde9b3ef 3d9404ed bd61d440 bcfeaff7 bd16aa94 be4f3b24 be8e516f 3e170eda 3d8871d3 beb09941 bdd03771 bd922ae6 3d82c39a bdce1915 bd3a4769 be6f85e4 3c37a9b4 be06cef3 3e119689 bd21470d 3cfea978 bc87773e 3efb4849 bdad9021 3d9b16e0 bd8b9310 bd5d28ce bc574774 bea12648 3ddf88ce bdec7730 bde58526 bc80ce24 bd4b33e2 bec0843b 3d841331 bc0abc0b be67490b 3c0e2c11 bd757cd2 3d9ab980 3df5822a 3d672a5b be58629a bc7fa821 bdabefe0 bef98366 bd9994a5 3e3cce51 bccc83b7 bd8b6556 bc4aeeb9 bc191abf bb26a9fb 3cfd477f bd43843b 3dbd7325 3c46a785 ba322974 3ab404a6 3e0e0cf9 bdac97c9 bc8416e3 bd5ef1ca 3d891fad bc475c84 bd7aeab8 3db40ebb 3cc103f4 3e21ad23 be67b3fd bdbe121c bac304bb 3c6652ce 3d502b84 be7a4785 3d311e89 bd8a95d1 3ba3f4ab 3b719458 bd3f0192 3e19056f bcf5bdae be38be27 3cf6232a 3e9cd6da 3d89114c be1ff129 3ed3ad20 3f1305fd 3d0fdd3c 3c660ba6 3e2e7ed0 3c418490 3e465eb5 be0c4b4b 3dc3596a bad84a0b 3e05e7ba 3e2f7ff2 3c8544ef bd2745b4 3c0ea05f 3d5d8ddc bbcdb843 bad66f0c bc9f5f33 bd484f7a bc134325 be75258a 3e253877 3d0183cc bb90ffc8 3c279cdc be1f7ec1 3d44af59 bdbcd578 bc96f77a bd9c578e bc96adf1 bb58a38c bd4b796e bc2a3236 bd79665d 3d20b66e bd18e582 bd92db51 3cec7e56 bdeafd9d 3d2e0f70 3da4683c 3b1e3c1a bd23e074 bcf41a50 bcc798f4 bd65c98b b9bb5527 3db33f05 be8d0712 3ea7841f b7bee527 bdbdb4bb 3cb31d2b 3dab4c13 3c078563 bcf51ec2 bd87dfcb 3d0b7277 bb6f6abb 3e1bca6f bddc0054 3bb81681 3c86bb79 3c960078 3dccde43 bc900cfc 3d0ae9d0 3dc027f4 bcd35860 3d9b825f 3c285fe2 3e910d91 3d12e7df 3c5f7e47 bb9293dd 3ccd58f0 3cf69d3a bcfe4f32 bdad98de beb7d7de bd2647f2 bb94e8a8 3d0f1cb0 3d49cf0b bdf840dc 3cf49ae3 be00ffae be1038df bd613d31 3e53d26d 3e8b164b 3e2689e2 3cb8a58f 3d8a2bfc bda2b692 be8aac9e be3c8799 beaf03e1 bda8ed78 bdea6316 be5bf6a2 3b793da9 bde0399a 3dcf9068 bebafc33 3ea3a647 bde2b1c6 3ec0ccb7 bd92290d be73957a beaee9ef bda2b59a be8d50e4 bd93bf48 bd96e773 3c679f40 bd8e475e be59684b bda9f261 bc455126 3d30b8b0 bdeb095c bdfe57f2 3e2a2a81 be0d33d0 3c8c9f52 be804a0b bdf701c5 bc9660b5 be2ec362 be803b4d bd8f60ca 3e0e809c be0a3bd3 3c908141 3de0a97a bcd07ac9 3e7483f2 bda41886 bea58f88 bda664c2 3e9fdedf bdc57a26 3e601ae6 3e1fa3b9 bcbaec44 3ce4692e bd0e45d8 be93a7a9 3ba1c523 bdc81885 be245fc3 bd097003 be982986 3ea306d7 be62bd75 bd8f4214 bcacd620 be1cd407 3e0f848a bd82da23 bd4c679b 3e616c60 bd0f9439 3cbf4d68 bcd93b4f 3cf556ec bd715cee 3ea3ecbb be83ee29 3b8f86f9 bddc4bdb 3e297247 be39cc34 bc60d42c 3e01d255 bd77dabc 3d1192ac bdb2fffd bcf8579d bcca4f96 3ea4f705 bdd62402 bcf06680 3db538f5 3e7061d4 be3e999c 3deb6f22 3c5aa1de 3e2ce5db 3de45571 bd7084e4 3d653a8c be077919 3d3ff91c bd213d19 be03a9ef bd78a576 bdeb94e5 bd16e8b8 bd6f113f 3cccf48e bcb8f18b 3e8e6439 bded4cc0 bda12fde 3d03c5fb 3d9f631c bdf28457 3e729c48 3ba38a91 be473f00 3bc7d527 be53e559 3db3223d 3d6b25a6 be91a408 bc99f792 3cdc7f54 3c52d0a5 3d3e775e bce2dfba bdf7aebd bcb64aec ba944682 bd2d0ee9 3d333acd 3bf8cbe7 be23ad30 3d91df97 bcb57433 3e1c51a0 bcec5269 3e1cfb0c bd5caf53 3e25761f bd1f1b0a 3db4fa6b bd6ecb56 bcb873f0 bdc11f6a bd422b72 bdc00bbb be7977cf 3d1dcb50 bbe0e404 bcd021c0 3da32756 3d7bc5d6 3c6a10fe bdafa470 bc61b637 bdb08562 bc901d86 bde223d3 bdefa7ca 3d59892f 3db25c5f bd2c7522 3e138562 3db10456 bdc160a2 3cac82be 3d22ca4c bcf5249a 3e1e094e be24cd5e bd940cee 3c96bf2a 3e2142cb bc3f89e0 3e891994 3e398d0e bc33a9f6 bd23b87a bd45edc8 bdd03b52 bc0aec1b bcb7943f bea9d507 3e3ede3c bd8030e6 3cc2eca1 bd91f475 bd63eb68 3ba2d38c 3ee1f2bb be9d651d be701150 3e8847a9 3dc437b9 3da98cf6 be2e4f96 bdcac394 bce6a272 3dc88348 beb0b4b3 3cbc91d2 bc9e8f2d bed57c9c bccfad34 bc863d3f 3c397af8 bebea5dc 3d288909 3e1fed58 3df22391 be15dec2 bdf2248b beefedff 3d069e1b 3c42f006 3dd73035 3dba5d57 bd98bf97 be44a939 bd70259b be985e57 bd776500 3dda1d6a 3d8fa3ae bde528a8 3d240cad bbf86842 bdcf71e9 3eaebc57 bdf452dd 3d26917d bdd71a2d be8c3a28 3ddce110 be924313 be0bb054 3dad1605 be295595 bc200d65 3d33d818 be91aa7e 3d4297d9 3b32243e bd9c1e7b be881ef4 3abae5ca 3d999e31 3d14432b bd14d57a 3e06faf2 3ea5e140 bd216f9c bcb61fa3 3ddc64d4 bdf02754 bdc46abb 3e20e986 be07f46d 3dd92f34 bdab256b 3c8dd3d4 3d0b7168 bbf531b8 bc9d688b 3b551df2 ba9f0032 bdd68ac4 bde1d4d2 3d0d8353 3d1a416e bdf5cd25 3dc6dad8 3da62e4f 3df29966 bd3bc77c 3d8c83f5 be198fa4 3d833d62 3d9a631a bc20907b 3e8a1e6a be5b6df4 3d905516 3da8e0fa bcc62cbd bd728649 3d4f580d 3e3e2b4a bdbba4fc 3c51bbd9 3dde18b6 bd3400a3 3d5f41ab bc8dbe85 3e4f6999 bd28b1c3 bd924207 3df3530b bdde816a bccfa9be bd89e68e bd317eb8 3dc3fb64 be0ac256 bdcbe598 3d78359f 3d0ccf5e 3c504793 bd936575 be31f7a4 be0fbc4a bdadf427 bc948dc3 3dacd7b5 3decc3c1 3d2b39ef 3d019468 3e531f86 bb9c3ce1 3dd291f6 be1072e2 bdac669b 3c245bca 3d985f15 bdea7d32 3c6e28b5 3c56e2c8 bd9b4de7 3e231f15 3c1070ff beb9c6b7 be602d50 bd79efd3 bac86139 bdf14429 bdae7b9d 3ec9c52c 3caf2232 3d4faa0c bd97073f bca336cd 3cef3aa2 3c0e4801 3b935d97 3db93e59 be09615d 3ce1ab9a 3d7007a2 bd53a3eb 3c2a31fd bf2d8006 bc874640 3bc81fbe bc4fdce5 bd37beca 3d4816df 3cce9d57 bd12680a 3dfc72f6 be84824b 3d9afb08 be0677b3 3da60135 3dcb9d4e 3df06400 3ba97458 3de5800d bdbca130 bd505e3c 3e115a95 3f26d75b bc880be4 bd787009 3e6d098f 3e5221c4 bd77cf29 bceba2cc bc3996d3 bd6d9768 bd2229bc 3d50523a 3ce155f8 3cc450c7 3e2798da 3d1f3b80 bc23afc4 bd1c3f8f 3d215a67 bde408fb bbaee161 bd38cec5 bd82fdbd bd859fbb bbfa4844 be387fc5 3d469876 3d3ad7f9 3d8d1e15 bdbcb3cf bd35bb09 3c7da7ec bcb6adc2 3da4b892 bd8b4ea0 bc95adfb 3daa7f5f bd88c64e bd77eacf bdb817f5 3d60b183 3c9df607 3c7ef204 b526f27b 3c2cba73 bf1b3357 bd99a116 bd2923f7 be0b6be6 bd5b3f9d 3c34d4df bcd1d2ce 3c836138 bc212dbb bda97fbf bda572e7 bcfd83ce 3dd3dc64 bd43cde1 bc54374a 3b01ca2b 3df01af4 bd1e4e8c bb29d932 bd4a9dc9 3e9ab93c bd758e89 3be35d8a 3e6c7697 3dab0f1e be4b76d1 3d645764 3e44121b bcbc0a88 bc4f4fd7 3d4ebdfc be7e680a bcb0d5f3 bdf4dd5b 3cc722f3 bc0c133f 3d4e30b1 bcbf9119 bbb72264 bc87112c bd894e93 3b28bcaa 3d662f1d bd8bdfe9 3dc28bc2 bd2c8eeb 3d2b0a5e bdae16db 3da588be bd96dfb3 be0cb104 be1b947e be0d59f5 3e0d5985 3dc38a9e 3d4377ac 3e30fd0f 3e14bb7e bdd4907f be0a720c bd5d24bf bd9e94b7 3e442608 3ba90ca8 be65032c 3e03b248 bc2a0797 bd41f4e0 bc986951 bd85452d bd9c0bea 3d9a3ec5 bd43ae85 bd23ebcc 3e22a75c bd10285b bdce95da bd7c1a73 3de4d4f7 3d358047 3e992cca 3d6f76a7 3e14ed96 3dc324b1 be1988b9 bdac2bde 3dc44550 3dc95eb7 3ceeeb4a bdd98bbc 3df88da3 bdd1b4da 3bd85331 3b406b07 bd87cd2f be408dff 3e9ecc04 bda8e4d5 bd8ecfd5 3e0c13a0 bdbdc26b be096d51 3d10c52e 3d6458bd bdea32a1 3eaa7fb8 bded212d 3dc732ea 3aba7aaf 3e2973a0 bd9f9c19 3c28bbd4 3d376651 3b0e1ec7 bc56836e 3d252793 bdda5b09 3e12f133 bc84b829 3d8f052e bd8c4650 be39bd8d bdfd2ee9 be419449 bd228db5 bcfb4704 bdc3c5f8 3dfa356d bdd4e4e4 bd955ce1 3e87d2b3 3e3fa514 bcfe3130 3e2b4d77 be84e6d2 bc434d8c 3d9eacb6 3e20f5f6 3e74b948 be0b590d 3e8272d4 bc0ed410 bd94b1c3 bd231a28 bd2bb424 bdf9ba3c bd868049 bdf2dc9a ba88bd59 3d87ae19 bc32ed6d 3afc6d10 3d920625 bd74a075 3c6d25bd 3e9cdee4 bdf9b934 be5f6006 3d83bcfd bd8dad0d bdbb8523 3c9f0b23 3e60d250 3e9ad169 3e68703f 3e86427e bbc1696c 3bf3b0f7 be4b04d3 bc854ac6 3d8de3b3 bc48b72b bdbe7977 bd92145b 3f013e2e 3e123126 bd4d4fb3 bc777c1f 3c37c81b bbd6fb0e 3d73a856 3e72259e 3e3180a3 3de94134 3e838005 bd84516a 3d8f2f36 be229019 bed9f7da 3db8833c 3e2c08ac bdb3cca7 3e96b9ff 3edb7c03 bdc9ce2b 3d4eaa31 bd7d72df bd88a6f1 3d288ed5 be28ad46 bd5a54e5 be13fc16 bd9ac728 3b2c7d21 be50505c bed48e19 bd47ac03 bc95ce74 bd79f374 bb35b097 3e8c9a7d bdf10475 3e0b950e bd1a2214 be7b0e93 3e4d730e bebe610b 3e2ec315 bc86bb86 bd10212b bdc80a95 bd2f22a9 3c879335 bdc63741 be2a7366 bc89a64b bdda876c bbcf5564 bdc43df7 bc2dcdb4 3d04e362 be0f5aa1 3df805b0 be9331ff 3d851a81 bc7bfdb5 be88d6c5 be0048a0 bef73084 3e821a1f bda9127c be36f699 3e63208f be31611c be53fb5b 3e0a0999 be205a59 3da3bc6c bdf897af bd46c75f bd395b4f 3e940d48 3ec6bda7 bd8963db 3bd0fb5d 3abbe458 3d7a1aae bc89df54 bd805b73 3dafa9d9 bd474923 bde34088 3e4f54b2 3ba1b769 bc779d43 bd5f2639 bebf44c5 bc4372f4 be42e8f2 3dbfcd2b 3d39d896 bda3b667 3ddad320 3d3a52df bce94c05 3de48127 be393658 bebffa65 3d408a73 3dac2519 bdce80fb bb8b9701 3cb22e1e bceb140d 3e27ab9e bc1aeedb bcff3ce4 3eefb9bc bcfebd64 3c312dfb bd07cc96 be65160b 3d5a4938 bdb5a782 bed15155 3d80ebba bd487ffa bda65794 bd05c48a 3bee57a6 3dcbe4f2 bcda3250 3d8cf366 bd43256f bd64b41c be6f8289 bd8f620c bd82797b 3e11041a bc8c0750 bdd91390 3cd793a0 baa6e566 bda88b5f beafc437 3e897585 3eac7731 3d3e0a04 3dcf5147 3de3b930 3ed1cb00 bcb72f72 3db4bc9e 3d65c180 3e073fcb 3e4a0009 bdb21e31 bd07c848 bd7b14bf 3b153873 3de45fa7 bd1a1aab 3ceee501 3d2458c7 bd902e35 bd819f91 3dbae5e8 3db0ee76 bde9bb09 bd2cfc8f 3f03ccf4 3ca0c13a bd8eaa20 3d9789a3 be0a2a09 3e031fba bcd6f31b bc1747b2 3d6534ad 3dac977b 3ca6cf12 be08cca7 bdfb6a7c bd21a2d6 39e4c2ed 3d035523 bc9a4bab 3b015851 bd114147 3d886460 3d5c4704 bd31a749 bb3e6c53 3efb6626 3d877d50 bd77eb6b 3d7203fa bd8468ac 3dd9224e 3e2b8284 be1cf8c9 3d88a0e4 bc916388 bd542c95 bda406c4 3d954783 3d7bd8ca bd99103d bdad0267 bbe28049 bd27c9a4 bdac4084 bc9888d2 bd4ca4f9 bd2777b4 3d8c821e bb55a8de 3e002e7b bcf38289 3c9a4c3f bd1f83c3 bcdfb54b 3d4a8129 3d746c3c 3dde697f be193a1e 3e1e9211 bbe6e517 39fd3be8 3cc0ef93 3c9acc5e bd4fe606 3d96a530 be038f59 bd59e650 bcfe2154 3bc56ea6 3c73d7f3 bd746ff9 3bf1d764 3d286454 ba946275 bf18b8df 3e2f3714 3e5870b3 bf100f7f 3e09a11a be2ecabe bdc4cb80 3e41d08b 3e21ec8e bdac0315 3e11edbc bc52dace 3c57d7a2 3cb555fc bd30cf56 bdd9f33c 3e899786 bdc4aea0 be245475 bc5c74fb 3caa83a9 be5129f9 bd89ba92 3e0dbb8e be1cc6a1 be07296c 3d257574 bd3f8c16 bd55ce69 3d967e12 3e58e8b9 3ea63548 bef9a103 bd9a1510 bbffdc7f bdbcb96c be587a83 bd889a9b bd4eb5ef bdc756ae be8e56d4 b82d9cb7 3c9e928d 3d6cdb8d 3dc6da9a be341a41 bc02c901 bdc7e2ef bdc12e15 3e84915a 3d99b803 bdfadd66 3e18cbd7 3e571f9d 3dedcb6f 3dcd1789 be42953f be5b7202 3c847a2e 3ccdec0b 3e75f673 3cfc1de2 bdd063f2 3dfdc5ba bd7acf35 3bf991d1 3d1b64c8 bdcb0f9c bce035d0 bda999ba be99f6b9 3d3a4d08 be31f472 3cace834 3dc91ae8 be03331b 3dc8f7fd 3da1a927 3e19496a 3d175995 bde35b1a be14d86d be6d6dee 3c399b16 3c847f98 bdebcbe6 3e490a3c 3df3c3e7 3ec33196 bdae84e0 3e07b9c8 3d02216b bd9a9834 3c7e2e62 3da6c0a9 3e91d0e2 3d90333b bb0958ff 3caa4558 bdfc5155 3e192e92 bec1ed96 be0e5244 3d9139d8 be2fe9a3 be6239c8 3d936685 3b75c7cb bd8fa45f 3c2622c7 be65128a bc62cca5 3d98bfb4 bdc4d332 3daab92c 3d61b695 bddd7858 bc787c15 3e2092aa 3c9d25dd 3d2e2134 bda54b32 3cb49ec1 3e03bb03 3ed7ef04 bde02a8b bde6e871 3d9a0235 3be085ec 3c96315b bc2fdc78 be8ade65 bcd35a2d 3ec5d993 bee64cc9 bda2b141 be14094f be60ef37 3dc0030c 3e008808 bd05d206 bd573a9d bcac9923 bd4ac33a bd4385b2 be0542de 3e00e2d3 3d5ad068 be54118f 3d739d0e bdc703d3 3ec66fe9 3e1465aa bcc71f8b bcf38074 bd97e35e 3da25613 3e62a2c4 bc8c5371 bc7fb9a5 ba186dc7 be6e80eb 3d902c4d be0c7c5a bd46c651 be4121d2 beb9c81d be2d15e9 be02f8ea bdbbfda9 3e040ff9 3cd55551 bdf3e752 be33a7ac be6c58c6 3cc721dc 3da70d4e 3e458957 3def34b1 bd2df067 3bdcb22b bba936c0 bdaf7a9e 3d4cd0a4 bdf3d28b 3d6b2b8f 3ccd5bfe 3dc7df59 3dc73314 3d4fb1c4 3d8a6c18 be277ea4 3dc8ad0c bc65d559 bca2ff5f bbc8b111 be237a61 bd3df377 3dc3e2c8 bcf8cbdd 3da4897d bd4bbd80 bdb182df 3dc3ab75 bc7cfacd bd986541 bdc9096b 3cfb43cc beb54467 3d33e4d0 3e49e939 3e48209d bd8d927a 3d8391f7 be1a61b0 3d2b731b 3d8f8eed 3d4b3060 bd81a7df 3d6959c6 bdc056a4 3d6e6fb2 3d067390 3c75e6a5 38c41c96 bd4b0cb4 3d83c969 3e2219e9 3d7b9e2a 3b005c9b 3db30d2b 3d65975a ba918fe4 3d2c82c8 3dc19e6d 3d65b7f1 3da2116b be2d61b1 be20918a 3c69bfd5 be130bd7 3be7e52a bd94f74b bd522ea9 be059042 be4c9680 bd909912 3db3155c 3dd335e0 3c495238 3c39ae27 bc191cdb bdc84f94 bf100bd3 3ca8237c 3c8e3ed0 be18bf56 3a4192ea bde57f07 bd62d54d bdd167e5 bd6ff59c 3db4b44d bc4c6731 bd32b932 bd770670 3cd525b8 3d112c07 3da7a5fa 3d25ea9a 3dccf161 bea86334 3db3db08 bdd8bee3 3debb5a5 bc72e166 be51b516 bea129a6 bdde6e7a bc09662f 3d17f8c7 3e0fd402 bd1ce7f6 bda1f521 3dd58b90 3e6da35d 3d1003c0 be5fc11f 3e09fb82 3c920879 bdafa322 bdd39ba2 bdae8176 bdbed307 3b9cd6d3 bc82dfc5 be44f856 bdc06b1f 3e08a8e9 3cb15aa1 3f3a6b28 3cb8935d 3e04028f 3c48d3b8 be305319 3d712f1f 3e233ef1 3d751dd9 bc48c801 bdb2db23 bdcbdc8e 3e5621e8 bca4e0ee 3cbcfa02 3c947c62 bc4b709d 3d66eea7 be8735ed be941855 bc2f6b1b bdc47d5f bccb9e53 3ce62c16 bda439ee 3dcb3a5c bb224dfb bdf95455 bc29318f bc53f1b8 3e92605f bba1a546 3bffce40 3e74e06f bdb7c114 be0df0b9 3f2c5a41 bd98a373 3d8c73dd bd60d9db 3d9292a0 bac9d791 3e52939e 3e88f52c 3db95522 bec54af4 be3160b6 bcb03323 bd705e56 bdcccff1 be8e0674 3e7f7107 3ddbabc5 3d68e4da bc86c722 3d60cd14 bd26d804 3e53e8f0 bd12aba3 3e7855b8 bc8551b9 bdd7892b 3d1bafe3 bd90659c 3d1dfc1d 3c4380ea bd699ca2 bdf3c936 3d430929 bd93448b 3d80ff97 be60448b bd517aa1 3e80f1ce 3e983ff9 bc320e34 be2ee905 bdb17399 be18bec5 3cb16589 3d26dd63 3d37ef1c 3c58d529 3e9bd265 3dad26aa bd5c5307 3c83cc8e 3e037759 3d029707 3e002faa bdfc0c0a 3ebaa63e 3d15133e bd9aafde 3e494a98 3e2c1d97 3ed0a49b 3d39faa8 3d5555b2 bd7feee2 bcfc5ca3 3dc873ac 3e3676eb bcec48e3 be28efd1 bd0a99f1 3d79cc03 bcbcbcc7 3e67abd7 bd5de4ea 3d262285 3de0c9cc bd428644 beb8e0ce 3dbe22c3 be8af5d2 be187f9b 3b32b5ae bdf23863 bcc2e518 bb94713b be01d02d bd08ae93 3eed5055 bd1f5d45 3d403c47 3e83f455 bd8b583f 3d026f99 3c143a87 3da2d5f3 3eb19ae2 bbabf163 3cec24bc bde06065 bc85e42d 3de1a6a3 bb9e50a1 3da6ce23 3d826ec7 bdcc7d3c bc872ec0 be2b416a 3d373dc3 3d0a81a7 be0d9a44 3caf5d3e be407f73 3c96e3d3 be071a23 bdb52908 bc24689a 3d223b27 3e21779a bd692bee bde0c37b bdd5f236 be51c512 be00be28 3db91880 bc7efe54 be42a483 3dcc4c5a 3d7be833 3d43c61f 3d6f8a6b bdaeee95 bdab94d0 bdcea5ad be22652f be3c5b05 3e9df521 bae05a33 bd90842d 3d103c58 bd0632f3 be0e54f8 bd5d6763 3d2938fe bb708920 3cb24161 3e360713 3df48a15 3c2e708e be1b1469 3c088f00 be7900bc be8ce42a 3dbf8453 be8654d6 bde4fcb6 3ec26597 bda292d8 bd990e9f 3e526946 be03fc05 bd04d558 3e1ed423 3d96b804 3e2a83e2 3d855788 be29b8e2 bc55a02c be0d08f3 3e10cd82 bd87f460 3e135a44 bddfe7b0 3d7a83e9 bc14d219
body.stage1.5.4.weight 64 3e6a75dc 3e42f667 3e66de08 3e8c8a4e 3e95e5a9 3ea7cf21 3e4c3e4f 3e5ccb68 3e880c28 3eafcc42 3e7ac994 3e85ca08 3e61308a 3e5b46a8 3ea263c3 3e9cb53c 3e983312 3ea2e7ec 3eb47b2b 3e87ae16 3e9609f9 3e976443 3e8233d7 3e85835d 3e8d902a 3e6d1af9 3ebd15a3 3e200304 3e9e2def 3e9b9ab3 3e7cd090 3e436c6a 3eb121f5 3e9d9085 3e244bfb 3e889f1d 3e8eb3b6 3ea9de35 3e2d33eb 3ec12ccc 3e74b650 3eac736d 3e623f2f 3e92bf37 3e936443 3e13fe01 3ec0afc4 3eab64ab 3ec8d5fd 3e9988f9 3e0b1175 3e8b8226 3e4e50ba 3ea83cea 3eb70bf2 3e6dbdcd 3e967db4 3ec805b2 3eb533d7 3e19341a 3e965a75 3e2c93ec 3e8dae73 3e9684b8
body.stage1.5.4.bias 64 3ec8dca7 be5175e9 3e154406 bd3840de 3df3eb0a bdf11983 3ec93538 3e80546d be952bc9 bd95480d 3deb445e 3dad6cc2 3cb6a3e5 3ed7524d be33dc2d bd3ff7cc 3e749200 3e658eb9 3bf3e44f 3ddb75dc be71402d be65324f 3e29e4f1 be347623 bce11a22 3ec509e3 3cd31c0e 3eaae9e8 3c967701 3deb4dfd 3e8f3243 3ece9146 3dac92dc 3e16412a 3e00ca8a be896689 3e9363c5 bdcab0f3 3e91c31d 3c3fba84 3e116cf6 3cd6e721 3ea0e350 bdba8b21 bdf94820 3dff6ed8 be0e5caf 3e7eca36 3cbdaa96 3e11c9e8 3ddc0313 3c9b2a38 3edf5fca 3d36f69b be3e15d7 3e8b2b71 3e95922d be0db312 3de4ab65 3ecae658 be151a34 3ef5c601 be073224 3dea4bf3
body.stage1.5.4.running_mean 64 3d7d3899 3c15dbcd 3e4574b8 3da27a0e 3d90fdd0 3e4c49e7 3f20a888 bc74a937 bead1ad7 be84ae3b 3e646775 3f0175a5 3f2e433e 3f2d6ba8 bd4042e9 3f475b8c bd63bb7f 3ebdc13a 3e832084 3e923e51 be4378b5 bec6f23b bed2db05 3f116f7b be798ac8 bf225d05 3e7005f4 bc46b553 3f85711e beff5644 beb2c2da bee2d8c5 be9497e4 be6ed15f be81b02b 3d6a6693 bdf2fa61 bee9b013 3e955dfc 3ef9ef3c bef3469a 3f19fa36 3ccc83b7 bd5edc43 bec11a25 3b05e698 bf17af4c 3d23e3fd 3c92b92a be9c3a74 be391d20 bdd6ce08 be8d8a1f be6a7c0b 3f6eb56b 3cb98cdf bf39cad4 bdbd9320 bf1d83a4 be597b1a be42b1f0 3e50e9c0 3f431411 be9e84bb
body.stage1.5.4.running_var 64 3e22aad0 3d0b3b88 3e059101 3e688ffa 3e26b45a 3e02df34 3e5c9796 3dcff713 3e16b11f 3e0eeb29 3e2f2b7e 3df4bea1 3ed5f613 3e4ea315 3e0e4ade 3e45a7d8 3dee6d30 3de79aaa 3e866086 3e0c95c3 3de5d9c3 3dbb1d8e 3df32252 3deeaff1 3e4f907e 3e0df2c7 3ea4ee0f 3e1e2411 3e4d5f64 3e262729 3e08cb78 3e0fa7f7 3eb35177 3e7018c0 3de4822c 3dd6bfda 3de8d64a 3ddfb7a5 3d9f0e1d 3ecebcb9 3dd1f550 3e616bde 3da5c400 3e5133ba 3e2173e6 3da66aa5 3eb4a2b3 3df8c389 3eb6da61 3e11d707 3d92189c 3e004660 3e309e6e 3e896913 3e099d7a 3dad0a17 3ea1f4f8 3e9dedc6 3e7c8ad2 3d79156f 3e821d76 3dee34dc 3e843cf4 3e60764b
body.stage1.5.4.num_batches_tracked 1 483476c0
